{
  "##ميل": 79618,
  "焕": 5313,
  "##čiu": 87091,
  "##kirch": 84196,
  "negres": 108506,
  "##rar": 13859,
  "Университет": 92880,
  "Tintin": 94938,
  "Sands": 67584,
  "przyjął": 77460,
  "putea": 62599,
  "##ставки": 88188,
  "stuk": 61593,
  "##טר": 24110,
  "Hunyo": 30740,
  "angolo": 94775,
  "##ghter": 45953,
  "დ": 1567,
  "VR": 74727,
  "continuat": 101576,
  "##echte": 98642,
  "##ılmışdır": 62926,
  "sana": 33108,
  "##āt": 60463,
  "romances": 104135,
  "з": 548,
  "Luxembourg": 23903,
  "ഡ": 1345,
  "##铂": 117835,
  "##ьні": 40857,
  "Ranier": 50926,
  "##лат": 30828,
  "UHF": 80195,
  "Datos": 84387,
  "ზე": 34463,
  "鹸": 8774,
  "Broken": 37719,
  "##plaats": 37862,
  "##jum": 49796,
  "distritos": 50305,
  "liens": 83628,
  "Funde": 84570,
  "##پ": 17911,
  "односно": 25434,
  "##وجه": 93129,
  "##twicklung": 108185,
  "Anniversary": 42061,
  "Microsoft": 15022,
  "iria": 92728,
  "讹": 7314,
  "seem": 57047,
  "##ece": 26635,
  "yılında": 13276,
  "canadese": 66953,
  "sett": 25115,
  "школы": 22842,
  "##лек": 30150,
  "vaid": 40009,
  "##digt": 32957,
  "Linux": 19291,
  "##чния": 96762,
  "Coruña": 34882,
  "prvé": 106794,
  "驗": 8543,
  "##סך": 100117,
  "Sovyet": 82207,
  "чоловіків": 28909,
  "menemukan": 56276,
  "##blem": 76419,
  "916": 82292,
  "dy": 13906,
  "بالا": 40920,
  "territoriu": 69085,
  "ocupado": 83442,
  "##ág": 22180,
  "Dom": 17694,
  "reveals": 47844,
  "दिए": 103821,
  "##♡": 111752,
  "##線": 116018,
  "000": 10259,
  "lluz": 91775,
  "##鍮": 117761,
  "##ỗi": 38554,
  "##ývá": 47484,
  "RN": 71327,
  "屬": 3502,
  "##ários": 23313,
  "Julien": 26726,
  "suara": 39640,
  "леррана": 49507,
  "Voiced": 99745,
  "fiction": 20455,
  "##焙": 115081,
  "Um": 14518,
  "[unused45]": 45,
  "##悉": 113625,
  "Junie": 66520,
  "##紧": 115964,
  "##صبح": 41858,
  "Hidden": 60962,
  "वाला": 62332,
  "##淡": 114811,
  "особено": 50001,
  "##힐": 119470,
  "baik": 24604,
  "##zle": 58588,
  "##žina": 42053,
  "##論": 117009,
  "##ителя": 55071,
  "##mogen": 98596,
  "try": 31638,
  "諂": 7236,
  "прошли": 76304,
  "##uksesta": 89632,
  "##inu": 23038,
  "detto": 32526,
  "effekt": 78778,
  "##66": 87372,
  "##pice": 55265,
  "##豬": 117174,
  "##琼": 115302,
  "round": 13569,
  "держави": 42486,
  "##ნები": 54133,
  "##ás": 12299,
  "##ાં": 76782,
  "鼎": 8814,
  "##್ಯದ": 88030,
  "##cribed": 66427,
  "participó": 27791,
  "##尘": 113230,
  "##venção": 64283,
  "##朧": 114238,
  "##מין": 27748,
  "Krista": 82258,
  "χωρίς": 41160,
  "medias": 105901,
  "dvs": 70584,
  "##伟": 111995,
  "##uwen": 41434,
  "ғына": 109467,
  "strong": 18093,
  "ҡала": 62812,
  "ko": 11252,
  "##cin": 43093,
  "##بطة": 89818,
  "Hispano": 104580,
  "kuće": 72506,
  "##жена": 31201,
  "атындағы": 61246,
  "音": 8367,
  "dessinée": 68605,
  "solución": 64197,
  "##ਾਨੀ": 108174,
  "mìnima": 81890,
  "Randall": 41629,
  "##的": 115484,
  "Nacions": 89462,
  "movemento": 106960,
  "humain": 65862,
  "ktorú": 38997,
  "خ": 770,
  "##闲": 117936,
  "##uutta": 77942,
  "##smitglied": 69156,
  "comú": 90857,
  "Maybe": 107561,
  "Vocals": 61369,
  "##ე": 17076,
  "##ロ": 18872,
  "##dly": 99596,
  "Am": 11500,
  "bâtiment": 30073,
  "του": 10356,
  "##ötte": 88259,
  "ਹੁੰਦਾ": 45037,
  "##arma": 81008,
  "##varo": 77640,
  "614": 55000,
  "gevallen": 75381,
  "femmes": 21560,
  "##ālo": 99202,
  "szerepelt": 46855,
  "##masa": 110567,
  "##顺": 118184,
  "際": 8252,
  "extrem": 44112,
  "##žel": 50414,
  "##侖": 112050,
  "ادبیات": 36132,
  "猕": 5443,
  "1917": 11368,
  "##чей": 63727,
  "יש": 18415,
  "pedra": 30392,
  "tih": 50829,
  "honako": 75922,
  "##dicate": 76299,
  "Brady": 45982,
  "##態": 113686,
  "Карла": 42720,
  "廻": 3698,
  "berbagai": 27699,
  "##ációs": 57488,
  "Amikor": 73172,
  "específico": 79336,
  "厲": 2722,
  "Нацыянальны": 73621,
  "ajutorul": 107053,
  "imagen": 32056,
  "mesin": 47285,
  "Mildred": 109956,
  "eit": 13916,
  "winning": 16542,
  "##vina": 22179,
  "853": 73149,
  "##je": 10381,
  "Pflanzen": 57097,
  "##LL": 82834,
  "ассоциации": 76874,
  "##цев": 16748,
  "##踪": 117336,
  "##стор": 63792,
  "##atur": 41196,
  "башҡа": 77052,
  "Rainfall": 13970,
  "##ot": 11290,
  "analyses": 84157,
  "##뒀": 118808,
  "##ני": 12706,
  "##ष": 39765,
  "##險": 118024,
  "##mbe": 35216,
  "każdy": 85447,
  "##čiau": 70501,
  "dokument": 62348,
  "chefs": 60477,
  "grecs": 95137,
  "dobio": 34754,
  "##ो": 13718,
  "##erman": 66744,
  "##离": 115710,
  "Workers": 52896,
  "autorité": 45098,
  "Stones": 33936,
  "López": 17728,
  "she": 10833,
  "##蚝": 116735,
  "вариант": 52528,
  "nhiệt": 25572,
  "##бия": 44737,
  "pollution": 68280,
  "##辿": 117454,
  "pobřeží": 89895,
  "##歆": 114547,
  "##лый": 48276,
  "gitar": 30194,
  "organisé": 52901,
  "鳅": 8697,
  "jsem": 108918,
  "懈": 3955,
  "##ίους": 105883,
  "найбільш": 56152,
  "##ப்பில்": 60460,
  "drummer": 43675,
  "један": 27310,
  "Lepidoptera": 14754,
  "olivat": 17586,
  "##terns": 106071,
  "##삭": 119025,
  "épocas": 103234,
  "##ificio": 54056,
  "##őben": 109083,
  "##繭": 116059,
  "aliran": 72676,
  "throwing": 110039,
  "potere": 30153,
  "##jassa": 60215,
  "terá": 105567,
  "Brazilian": 32818,
  "##莖": 116537,
  "##yên": 50431,
  "Forst": 83400,
  "##DE": 60675,
  "##恐": 113600,
  "##य्गु": 91630,
  "##萄": 116573,
  "stát": 58608,
  "Adams": 16955,
  "ական": 57896,
  "директор": 23606,
  "##遹": 117546,
  "marqué": 68281,
  "##ย์": 27182,
  "##fə": 76315,
  "בכך": 48440,
  "عناصر": 75296,
  "comenzaron": 60056,
  "##бат": 74329,
  "##ресс": 101617,
  "##자의": 42984,
  "##стта": 34068,
  "kuusi": 71653,
  "파": 9901,
  "отсутствует": 99164,
  "##壬": 112936,
  "##िकी": 74163,
  "卒": 2677,
  "Can": 14820,
  "辰": 7679,
  "##cepción": 51609,
  "card": 23050,
  "deixar": 35228,
  "égalité": 88940,
  "054": 70967,
  "Согласно": 25555,
  "唆": 2877,
  "##నే": 32581,
  "##לחימה": 110804,
  "rijeke": 45127,
  "536": 45913,
  "rimasto": 80510,
  "typu": 20708,
  "מלך": 44268,
  "##ferito": 85798,
  "sexu": 30112,
  "indústria": 45969,
  "##χο": 35790,
  "bestelako": 23512,
  "##فصل": 56205,
  "Kap": 68634,
  "##áma": 78404,
  "Jahrhunderts": 15827,
  "Irena": 85849,
  "only": 10893,
  "##noj": 21514,
  "枭": 4530,
  "stavu": 65027,
  "Љ": 503,
  "guard": 42842,
  "##קרן": 94770,
  "##趕": 117304,
  "Aircraft": 22892,
  "##ểu": 69205,
  "##었는데": 74311,
  "##дзел": 79169,
  "98": 12327,
  "##owanym": 107066,
  "沦": 4920,
  "想": 3898,
  "##еник": 93254,
  "живота": 39723,
  "1719": 40106,
  "##팍": 119377,
  "Charlene": 39359,
  "##کل": 47653,
  "ಇರುವ": 100406,
  "diri": 20114,
  "##foni": 88401,
  "[unused93]": 93,
  "تاکنون": 68998,
  "##pia": 17837,
  "##изм": 58493,
  "##pische": 93712,
  "алу": 26890,
  "Verlängerung": 82932,
  "hold": 18500,
  "داشتند": 62175,
  "##østen": 64960,
  "翡": 6445,
  "##րի": 22727,
  "##亦": 111933,
  "Belize": 59118,
  "valida": 106568,
  "##盟": 115515,
  "198": 23452,
  "Us": 27582,
  "Trinidad": 31327,
  "Conference": 16424,
  "Numbers": 51409,
  "abbitanti": 82912,
  "##鮭": 118403,
  "lleva": 30818,
  "Magnoliopsida": 14706,
  "Case": 24357,
  "bar": 18121,
  "##לו": 25728,
  "Ziegler": 102205,
  "##bre": 13724,
  "##択": 113810,
  "##zut": 62521,
  "heritage": 39046,
  "##acon": 65838,
  "ülkenin": 92017,
  "Australie": 33591,
  "Morris": 17161,
  "Canadian": 14023,
  "##謝": 117034,
  "##mentu": 39463,
  "رغم": 79887,
  "toho": 24070,
  "Mahalleye": 97530,
  "espanyol": 51306,
  "##충": 119276,
  "Salvia": 107086,
  "##滲": 114916,
  "##aldo": 41141,
  "もしくは": 80985,
  "跌": 7549,
  "##air": 20039,
  "##nesi": 66160,
  "Punk": 37776,
  "композитора": 95789,
  "dặm": 88811,
  "editor": 16595,
  "##ціях": 96353,
  "##enció": 109053,
  "AOL": 107746,
  "##zin": 19325,
  "Dinamarca": 39137,
  "郸": 7837,
  "Lennox": 94026,
  "моделей": 87515,
  "1406": 82486,
  "remporter": 104329,
  "##ывает": 36708,
  "ஐக்கிய": 73794,
  "Standard": 17861,
  "innebär": 42219,
  "rozpoczęła": 69543,
  "barra": 71106,
  "Beccaloni": 18531,
  "Ñ": 241,
  "pensa": 74619,
  "rođen": 62156,
  "Samo": 88646,
  "滇": 5128,
  "labour": 40763,
  "##ét": 13837,
  "обычно": 32654,
  "##坟": 112821,
  "населението": 34637,
  "ಪ": 1282,
  "şəhərində": 45363,
  "Tribe": 74680,
  "1254": 85538,
  "##kezik": 86053,
  "Europos": 47106,
  "kvůli": 44905,
  "רמת": 76638,
  "вторая": 79064,
  "遅": 7753,
  "##endas": 108836,
  "samana": 86248,
  "##rants": 55208,
  "##urd": 62933,
  "粲": 6158,
  "través": 14721,
  "##ic": 11130,
  "log": 49316,
  "##岚": 113283,
  "ಗ್ರಾಮದಲ್ಲಿ": 82180,
  "##లూరు": 85025,
  "toate": 28678,
  "##昴": 114148,
  "niitä": 60728,
  "##deros": 110571,
  "##oum": 88314,
  "##ített": 37638,
  "Հայկական": 59941,
  "record": 12410,
  "Soldat": 88041,
  "Haarlem": 62467,
  "##咄": 112596,
  "##繇": 116047,
  "粪": 6155,
  "چاپ": 44639,
  "días": 18012,
  "畠": 5628,
  "##ором": 52735,
  "Ө": 620,
  "municipais": 83554,
  "irodalom": 101360,
  "près": 16092,
  "##brück": 108357,
  "##hner": 45930,
  "wiek": 105437,
  "##젠": 119208,
  "المجموعة": 67756,
  "amiral": 64691,
  "дакъа": 33764,
  "##쾰": 119315,
  "Baillargeon": 10651,
  "##ίστηκε": 50952,
  "1920er": 74921,
  "##mpa": 31285,
  "tres": 11681,
  "##dział": 110206,
  "GAD": 27045,
  "laika": 88892,
  "##teren": 72824,
  "##איטליה": 103976,
  "Raw": 30712,
  "過": 7758,
  "тармағының": 83465,
  "##kel": 14510,
  "する": 10573,
  "##임": 36240,
  "մասը": 42098,
  "приток": 60208,
  "Aqua": 97850,
  "##d": 10162,
  "現": 5512,
  "Destrict": 80146,
  "meist": 19053,
  "içerisindedir": 54390,
  "Juliet": 60980,
  "##quier": 39190,
  "électricité": 89742,
  "##گار": 50717,
  "##날": 41919,
  "সদর": 88058,
  "округінің": 35339,
  "ésta": 47055,
  "Sigma": 60548,
  "tradicionalmente": 77834,
  "##tedra": 53997,
  "牙": 5399,
  "ہندی": 99746,
  "ampliamente": 97000,
  "##inė": 44487,
  "mixing": 53413,
  "rozgrywkach": 72528,
  "Batalla": 44539,
  "исключением": 76781,
  "##्यादा": 89192,
  "износила": 67031,
  "Battalion": 27641,
  "aigua": 30829,
  "##愤": 113678,
  "아": 9519,
  "##issä": 20356,
  "킨": 9840,
  "উপর": 48120,
  "罪": 6405,
  "לשנת": 61322,
  "examen": 48596,
  "Morning": 23676,
  "##שתה": 102561,
  "jedoch": 12161,
  "LE": 84977,
  "##癸": 115477,
  "946": 80229,
  "##尉": 113220,
  "ABC": 16052,
  "Kern": 47918,
  "Breakfast": 105729,
  "wadi": 60035,
  "potevano": 88782,
  "##tyä": 89865,
  "merci": 109325,
  "десет": 94904,
  "纜": 6303,
  "Ελλάδας": 60661,
  "canvi": 44597,
  "##ನ": 13809,
  "sky": 62368,
  "虢": 6952,
  "##疋": 115413,
  "##系": 115942,
  "ಇ": 1252,
  "Capital": 21433,
  "##创": 112312,
  "атласот": 102112,
  "duwé": 47784,
  "Nederland": 16059,
  "##ਰੇ": 63050,
  "##务": 112365,
  "##éssel": 52727,
  "filozofii": 98794,
  "Chèf": 55097,
  "麦": 8787,
  "svoji": 57618,
  "keep": 23819,
  "жери": 82433,
  "##डिया": 102124,
  "catholiques": 90531,
  "subfamily": 51434,
  "76": 12428,
  "##率": 115242,
  "##혜": 119437,
  "##mę": 81935,
  "Slovensku": 39292,
  "высотой": 94456,
  "دسامبر": 35168,
  "##iane": 55738,
  "contexte": 62856,
  "973": 56468,
  "tekanan": 93131,
  "Ngoài": 45447,
  "blood": 24911,
  "ऽ": 901,
  "gegn": 93631,
  "надморска": 65208,
  "swing": 74772,
  "खँग्वया": 75025,
  "##撈": 113992,
  "##iciencia": 95946,
  "tohoto": 31852,
  "Minneapolis": 43614,
  "Carter": 18047,
  "adinaren": 33216,
  "##կին": 73494,
  "biztanleak": 20613,
  "##ēma": 109735,
  "جسم": 80942,
  "consta": 39128,
  "Lévy": 110278,
  "know": 21852,
  "##значити": 106441,
  "##okní": 100378,
  "偏": 2361,
  "##డు": 16651,
  "Albacete": 87380,
  "##지가": 80795,
  "పచ్చిక": 103134,
  "哨": 2867,
  "##esett": 100772,
  "##햄": 119422,
  "Cuenta": 64011,
  "##petto": 95183,
  "Federación": 33911,
  "equilibrio": 67441,
  "##merk": 78472,
  "##oké": 103788,
  "Perrin": 81068,
  "Daytona": 89483,
  "Ò": 242,
  "Kategorie": 28885,
  "鋼": 7971,
  "玮": 5486,
  "зал": 69424,
  "##aje": 19234,
  "muitos": 25149,
  "##nehmer": 73664,
  "##ntów": 70035,
  "##зважаючи": 69266,
  "faccia": 104543,
  "##ści": 15083,
  "##bě": 28928,
  "##碣": 115636,
  "##atore": 41151,
  "訃": 7170,
  "##誘": 116985,
  "##nec": 54881,
  "##таж": 98202,
  "Dynamic": 91941,
  "arbeitet": 43988,
  "피": 9946,
  "Bailly": 10645,
  "##πτει": 103381,
  "diventa": 40024,
  "Experimental": 56365,
  "##şmaları": 90756,
  "##enharia": 65373,
  "gespielt": 47074,
  "엠": 9563,
  "ente": 14899,
  "蛇": 6977,
  "тұрғыдан": 38179,
  "penn": 62603,
  "##ოლი": 67431,
  "apart": 43084,
  "tomba": 61832,
  "Fitzgerald": 45231,
  "##ggung": 69599,
  "##dorf": 16631,
  "English": 11616,
  "##deti": 73129,
  "##dele": 48985,
  "##eckého": 87696,
  "senior": 17843,
  "##egu": 40876,
  "weiter": 18297,
  "життя": 21504,
  "踞": 7567,
  "##нують": 77144,
  "캘": 9794,
  "Espanyol": 78748,
  "##xer": 100161,
  "Elephant": 78054,
  "##ciendo": 44398,
  "##ciuta": 91787,
  "佑": 2250,
  "mogli": 55765,
  "##pt": 14971,
  "educação": 68821,
  "##سرحية": 105547,
  "##ائے": 70664,
  "sin": 10795,
  "Statele": 67715,
  "drum": 37345,
  "usada": 37143,
  "बुया": 75433,
  "打": 4009,
  "##ένα": 83101,
  "##upas": 87271,
  "депутатов": 42817,
  "Robinson": 13895,
  "Jenkins": 39038,
  "Champs": 60650,
  "cgi": 70800,
  "##галом": 72151,
  "aktív": 103326,
  "1101": 62153,
  "##sidir": 60851,
  "holde": 67671,
  "daging": 75902,
  "protecting": 106279,
  "##מי": 15463,
  "##ಸ್ಟ್": 47681,
  "store": 13708,
  "##ejo": 40841,
  "فرانسه": 32025,
  "tribes": 50968,
  "Έχει": 60944,
  "՞": 667,
  "##uksen": 24405,
  "genannt": 16515,
  "##ála": 33940,
  "Academic": 27131,
  "##šno": 41327,
  "čin": 84698,
  "começa": 63698,
  "informazioa": 91887,
  "##gestaltung": 83629,
  "嵌": 3560,
  "饗": 8486,
  "यांना": 101348,
  "1510": 50112,
  "##kuussa": 37237,
  "OEA": 46430,
  "تغییر": 37260,
  "##איות": 93734,
  "позиция": 104773,
  "nunmehr": 100345,
  "##ündən": 98470,
  "eenheid": 102610,
  "signature": 44852,
  "Zagrebu": 38131,
  "Contreras": 88146,
  "##uait": 107650,
  "доступ": 76626,
  "united": 89284,
  "фотографска": 94644,
  "##鲨": 118453,
  "ছ": 954,
  "bd": 76465,
  "##枝": 114289,
  "prvenstvo": 53415,
  "theme": 26648,
  "населённых": 24663,
  "البيانات": 72820,
  "kiến": 32051,
  "часов": 47948,
  "Lakin": 49878,
  "##щин": 102613,
  "독일어": 101310,
  "2542": 95306,
  "晷": 4412,
  "##צב": 33128,
  "وہ": 21035,
  "Sb": 73282,
  "Composition": 90431,
  "ئ": 762,
  "Government": 14581,
  "##Ҳ": 111094,
  "Hän": 12569,
  "capable": 29298,
  "耸": 6470,
  "aloitti": 32417,
  "hiervan": 68453,
  "##큼": 119328,
  "##trato": 61301,
  "română": 54381,
  "Wehrmacht": 35107,
  "больших": 74813,
  "franska": 53924,
  "Сент": 40855,
  "muy": 13436,
  "erreichen": 32796,
  "##dassa": 95102,
  "aired": 29116,
  "##ейского": 106731,
  "సంరక్షణ": 40925,
  "##هیم": 69064,
  "గణాంకాల": 26526,
  "ಜ": 1269,
  "##tanti": 64969,
  "輓": 7615,
  "Ted": 22970,
  "ਲਿਆ": 89104,
  "ো": 989,
  "##ania": 16727,
  "2013": 10207,
  "Ольга": 52827,
  "栄": 4559,
  "##γα": 43140,
  "ず": 1926,
  "نوشته": 51441,
  "Jericho": 71129,
  "ά": 461,
  "498": 47317,
  "##yıl": 97122,
  "samlede": 107119,
  "resti": 57676,
  "##ющиеся": 56466,
  "##iți": 103910,
  "Hawaiian": 62706,
  "дозволяє": 64457,
  "olib": 74304,
  "acque": 58380,
  "ափին": 98640,
  "کہ": 15333,
  "Ajuntament": 81116,
  "मन्दिर": 86795,
  "##帑": 113373,
  "##悲": 113640,
  "majoritatea": 26611,
  "produzierte": 74488,
  "انعام": 93751,
  "Wii": 31135,
  "seri": 46972,
  "prende": 43070,
  "flexible": 81816,
  "Након": 33800,
  "##umā": 82541,
  "medeltemperaturen": 10938,
  "##轻": 117415,
  "##һы": 15231,
  "##ющей": 31960,
  "oficials": 98277,
  "ян": 103133,
  "117": 16628,
  "livskraftig": 72072,
  "jejím": 68444,
  "Izraela": 102628,
  "wetenschappelijke": 11433,
  "##له": 19721,
  "clásicos": 96606,
  "homónima": 109404,
  "##pustakaan": 82809,
  "##אחרים": 70366,
  "Form": 16927,
  "##locke": 93986,
  "##інің": 22157,
  "conegut": 29007,
  "运": 7696,
  "సమీప": 13122,
  "##ывал": 59422,
  "gambar": 60022,
  "friendship": 74447,
  "улога": 84438,
  "грав": 57187,
  "Émile": 31451,
  "陽": 8237,
  "##ᵢ": 96848,
  "##torii": 60237,
  "##hle": 41058,
  "##█": 111729,
  "##myggor": 69259,
  "ситуации": 81329,
  "坡": 3057,
  "nalaze": 42728,
  "炽": 5289,
  "hee": 100415,
  "##тури": 47927,
  "##鱗": 118434,
  "##鱂": 118428,
  "мен": 13667,
  "భూముల్లో": 74892,
  "##aid": 39522,
  "ëm": 98083,
  "Sumber": 86436,
  "necessidade": 88966,
  "apenas": 15621,
  "##nutí": 47562,
  "##guito": 64744,
  "că": 13627,
  "таксама": 22152,
  "Bremer": 59760,
  "utilizzato": 34530,
  "驸": 8560,
  "##mara": 41244,
  "coraz": 88629,
  "spisak": 36301,
  "##น": 16000,
  "consulta": 86153,
  "Willie": 34085,
  "fiscal": 43645,
  "##вео": 77789,
  "لوئر": 93073,
  "##菖": 116559,
  "meters": 31020,
  "metropolitana": 37885,
  "##ñs": 43802,
  "angreb": 89354,
  "##ويل": 53573,
  "pola": 14151,
  "daraufhin": 36595,
  "kylä": 101836,
  "coll": 28552,
  "鶻": 8738,
  "##кина": 99557,
  "656": 47725,
  "Urgell": 92473,
  "eigentliche": 104133,
  "donner": 39230,
  "##笏": 115819,
  "озынлыгы": 30348,
  "Саксонија": 107182,
  "Beast": 40221,
  "Kanada": 12860,
  "Zoom": 110728,
  "##ior": 65506,
  "##篤": 115880,
  "##స్తారు": 36248,
  "氦": 4860,
  "##gue": 16381,
  "##вши": 38545,
  "Garden": 17590,
  "달리": 78139,
  "##יך": 32491,
  "##zielone": 103623,
  "fail": 84891,
  "Laurie": 54715,
  "folgt": 37872,
  "Gibson": 25132,
  "evaluation": 70204,
  "었": 9557,
  "##ciuti": 93314,
  "Saveznom": 107978,
  "##漂": 114922,
  "Adolphe": 53345,
  "##文": 114079,
  "ׂ": 721,
  "伍": 2218,
  "ursprünglichen": 57647,
  "##виг": 78465,
  "##ndre": 40022,
  "percent": 22362,
  "gay": 29435,
  "##肺": 116286,
  "РКП": 66438,
  "amigos": 29097,
  "όλες": 73537,
  "Ramiro": 97805,
  "瑜": 5547,
  "##RC": 52932,
  "われ": 28858,
  "mythology": 101505,
  "546": 52533,
  "regarded": 34937,
  "##حور": 60106,
  "శిక్షణ": 37217,
  "tą": 89570,
  "компаний": 86460,
  "##תו": 20375,
  "##vage": 39005,
  "Liberation": 54766,
  "Ghosts": 89667,
  "##ֶ": 111154,
  "bào": 63369,
  "পুরুষ": 89766,
  "μετά": 19405,
  "bilim": 81299,
  "##ίου": 24857,
  "avevano": 26993,
  "съпруга": 81472,
  "##치": 18622,
  "creating": 29132,
  "86": 12224,
  "matriz": 80490,
  "единиц": 66515,
  "##קבוצות": 70238,
  "Inter": 24362,
  "yli": 26619,
  "başladı": 24536,
  "vrije": 71187,
  "If": 14535,
  "##곧": 118640,
  "稗": 5973,
  "dvije": 26759,
  "langabezian": 33725,
  "Mary": 12176,
  "##гледа": 103434,
  "प्राचीन": 38965,
  "Argentino": 70480,
  "береді": 82145,
  "వాణిజ్య": 25082,
  "##şmaya": 97098,
  "##ysik": 81106,
  "Голова": 60265,
  "##כה": 17638,
  "##ами": 12040,
  "##ското": 21373,
  "єри": 59273,
  "horen": 83261,
  "фильмов": 58356,
  "##ългарската": 108788,
  "1554": 52348,
  "桀": 4583,
  "娱": 3302,
  "nens": 45943,
  "##tett": 34226,
  "##ásában": 99719,
  "контракт": 29752,
  "Molly": 42869,
  "##kert": 62218,
  "##stätte": 66054,
  "truly": 92755,
  "##νου": 45060,
  "Napoli": 19467,
  "Lisbon": 63290,
  "teka": 107414,
  "##숫": 119066,
  "geldig": 11452,
  "Cuối": 99023,
  "##bər": 80709,
  "mengadakan": 88094,
  "##ęg": 101567,
  "##vnica": 109726,
  "##Ἀ": 111593,
  "##rtugas": 94804,
  "resistance": 33823,
  "##ۂ": 111188,
  "##gyi": 95478,
  "government": 12047,
  "empezó": 27779,
  "Նրա": 49066,
  "klart": 58294,
  "loi": 20472,
  "ฌ": 1404,
  "Keski": 74468,
  "##ակցության": 82539,
  "iklimi": 36157,
  "##rlari": 109162,
  "Cecil": 37440,
  "##dul": 42918,
  "يقدر": 23865,
  "décide": 28281,
  "facilities": 24302,
  "nekog": 58406,
  "tillegg": 26532,
  "aurrera": 68808,
  "##17": 34264,
  "Apart": 70792,
  "##ffin": 55166,
  "banlieue": 106900,
  "##venti": 83692,
  "ခ": 1493,
  "построено": 103677,
  "Towards": 79491,
  "fisico": 63618,
  "##цій": 22099,
  "##ığı": 28581,
  "ATM": 92233,
  "##tini": 29619,
  "##ryl": 60702,
  "Museums": 42850,
  "##ynd": 88112,
  "sagolsagol": 105326,
  "砖": 5834,
  "فوج": 61842,
  "Степан": 80968,
  "chemin": 29233,
  "##від": 54849,
  "என்ற": 18303,
  "quartier": 23662,
  "है": 10569,
  "Длина": 41978,
  "##nější": 34325,
  "Centraal": 66503,
  "Ziele": 85945,
  "##ēšanas": 97721,
  "##个": 111868,
  "イタリア": 47350,
  "quarti": 41890,
  "Johansen": 75370,
  "tesoro": 107833,
  "segons": 23414,
  "сумел": 102597,
  "junge": 45106,
  "##سوق": 82150,
  "##암": 119115,
  "מעבר": 57562,
  "فارماکولوژی": 71679,
  "რამდენიმე": 52147,
  "##പ്പെട്ട": 51571,
  "##pret": 97423,
  "Afro": 70744,
  "island": 17354,
  "directe": 43752,
  "boʻlib": 45903,
  "letztlich": 89573,
  "##ági": 60262,
  "伞": 2228,
  "##앙": 119119,
  "##殃": 114575,
  "olunmuş": 59103,
  "FOX": 77434,
  "##吏": 112542,
  "競": 6046,
  "osobe": 86454,
  "##érou": 93705,
  "Azur": 46317,
  "ซ": 1403,
  "ഒ": 1331,
  "ক্রিকেট": 52245,
  "##posten": 85134,
  "Ruiz": 27963,
  "norvegese": 95656,
  "##даа": 51161,
  "назви": 69660,
  "##jov": 71056,
  "Presidente": 17822,
  "категорії": 101049,
  "##sborg": 99627,
  "uden": 37283,
  "1990er": 39845,
  "##のは": 21665,
  "oberen": 48958,
  "##cen": 26204,
  "##갔": 118613,
  "Đồng": 38562,
  "844": 74010,
  "இந்தப்": 109529,
  "遵": 7777,
  "##aio": 73897,
  "téměř": 47853,
  "모": 9283,
  "comandant": 79160,
  "##मुळे": 60386,
  "##äsi": 90498,
  "lore": 97869,
  "##akei": 101768,
  "Nietzsche": 55642,
  "постоянного": 45829,
  "ਰ": 1041,
  "##れ": 27843,
  "vysoké": 85027,
  "##deiro": 83779,
  "##주는": 100633,
  "even": 13246,
  "కూడా": 14895,
  "Logic": 66874,
  "삭": 9406,
  "่": 1457,
  "##D": 11490,
  "wohl": 31541,
  "tangga": 74735,
  "##תיים": 80483,
  "متر": 14719,
  "##剑": 112336,
  "##λει": 79472,
  "废": 3668,
  "##ോൾ": 64508,
  "康": 3676,
  "##sso": 28125,
  "##нова": 36481,
  "народився": 49849,
  "ે": 1123,
  "##чение": 21137,
  "啾": 2907,
  "artes": 40431,
  "putra": 47839,
  "跡": 7555,
  "##nskom": 63360,
  "##иња": 77731,
  "Campeão": 93597,
  "##опу": 100697,
  "슈": 9472,
  "##gium": 56257,
  "Kino": 47530,
  "यागु": 52317,
  "##破": 115606,
  "keväällä": 102940,
  "燧": 5367,
  "##টা": 36715,
  "ағыл": 20094,
  "Ltd": 15129,
  "simple": 16205,
  "frei": 42109,
  "##جع": 63289,
  "colonnello": 94318,
  "Koning": 92398,
  "##بہ": 88392,
  "헌": 9969,
  "##闪": 117930,
  "corredor": 93629,
  "Lage": 27712,
  "thiên": 37736,
  "##ponenti": 87107,
  "##ності": 21313,
  "الجديد": 57150,
  "##oed": 70190,
  "##gala": 69215,
  "dédiée": 92613,
  "naslovom": 101998,
  "Punta": 23714,
  "lasted": 47547,
  "##писание": 56755,
  "##jących": 22837,
  "coalición": 75261,
  "##정이": 98489,
  "suivent": 101624,
  "malý": 103893,
  "conto": 38885,
  "##মার": 55077,
  "豬": 7408,
  "Guilherme": 69762,
  "##劳": 112374,
  "Governor": 20462,
  "##mper": 52876,
  "##ywy": 107213,
  "nią": 58780,
  "##俗": 112075,
  "##玠": 115248,
  "##desse": 106779,
  "##lated": 50476,
  "ဏ": 1506,
  "##нология": 80282,
  "conseqüència": 104486,
  "Szkoły": 69272,
  "Demokratik": 110219,
  "Яков": 105568,
  "కుళాయిల": 46349,
  "միջոցով": 72173,
  "riêng": 39778,
  "ң": 602,
  "##äsart": 103167,
  "memberikan": 30626,
  "Cornelius": 39572,
  "appellation": 67334,
  "győztes": 85792,
  "Haltung": 102973,
  "Марко": 58988,
  "לוי": 90352,
  "precedente": 26414,
  "Тоа": 106122,
  "##,": 110862,
  "Nouveau": 37490,
  "##lektor": 91617,
  "religião": 98763,
  "##פיר": 108312,
  "덜": 9077,
  "##pok": 58047,
  "explosion": 53021,
  "##уют": 43570,
  "##粤": 115918,
  "Girona": 50084,
  "онд": 21526,
  "huko": 85596,
  "賛": 7448,
  "ih": 17736,
  "okrese": 28170,
  "##몫": 118935,
  "sea": 14931,
  "##্ন": 33664,
  "ල": 1392,
  "ബി": 37277,
  "الأسر": 23412,
  "аренан": 59495,
  "##ецьких": 85901,
  "masculine": 87720,
  "##ઑ": 111277,
  "召": 2753,
  "##ங்களை": 41882,
  "nafngifta": 97076,
  "разу": 76021,
  "##琴": 115299,
  "sätt": 54541,
  "##وعة": 41094,
  "802": 35204,
  "臉": 6611,
  "##հում": 83841,
  "Esto": 24165,
  "##elane": 84341,
  "להקת": 85401,
  "##mişdir": 31865,
  "诅": 7324,
  "##овете": 45907,
  "##chn": 61497,
  "##เซีย": 66756,
  "##NO": 67292,
  "kvinder": 108498,
  "##icom": 99426,
  "ой": 83489,
  "[unused40]": 40,
  "Thị": 42897,
  "Grêmio": 108044,
  "mestre": 41322,
  "трети": 109117,
  "אתר": 93251,
  "cabang": 84628,
  "##ûr": 95999,
  "舫": 6649,
  "цим": 68783,
  "##րանի": 66993,
  "##에도": 35979,
  "411": 34386,
  "arrival": 40285,
  "università": 58372,
  "##kteur": 81096,
  "Theorie": 41627,
  "Milan": 15807,
  "##liegenden": 55310,
  "##hnya": 55093,
  "읍": 9635,
  "escenas": 68185,
  "दूसरे": 63087,
  "##閾": 117917,
  "##eld": 24317,
  "Studenten": 55478,
  "0°": 104947,
  "Ethics": 74460,
  "##ొండ": 102008,
  "saving": 90682,
  "##படுத்தி": 105857,
  "Ў": 507,
  "bitke": 94525,
  "propios": 44464,
  "organização": 49463,
  "##tare": 24019,
  "SI": 39675,
  "##aani": 88586,
  "Hiroshima": 57148,
  "##berry": 33824,
  "closing": 57409,
  "Đình": 71636,
  "hatt": 46674,
  "חברה": 73953,
  "الانتخابات": 99957,
  "Academia": 17898,
  "généralement": 27370,
  "Köy": 82545,
  "のような": 32983,
  "Bungtod": 76915,
  "Cité": 59800,
  "Sia": 88468,
  "##hebung": 98952,
  "##șit": 100498,
  "##ರ್ಭದಲ್ಲಿ": 109319,
  "##bki": 77982,
  "盱": 5757,
  "maiden": 87761,
  "##ثل": 46069,
  "入": 2446,
  "ნაწილი": 55817,
  "nostra": 74189,
  "bracht": 46258,
  "zi": 57087,
  "академии": 30415,
  "##वीं": 63805,
  "##逛": 117502,
  "Й": 518,
  "##тету": 65779,
  "##ópteros": 96079,
  "槽": 4711,
  "覽": 7154,
  "##иран": 58013,
  "陋": 8212,
  "鹿": 8778,
  "McCartney": 30638,
  "##veze": 101438,
  "dek": 18910,
  "##च्या": 17766,
  "ڈاکٹر": 89642,
  "##нённых": 98608,
  "తూర్పు": 100185,
  "manner": 39750,
  "##燐": 115126,
  "Արեգակի": 90087,
  "WoRMS": 22247,
  "##으나": 35466,
  "##icz": 44853,
  "Elmer": 59519,
  "##gadh": 79644,
  "имели": 46567,
  "1909": 11944,
  "##狸": 115205,
  "Entwicklung": 20426,
  "##utti": 44219,
  "depan": 56697,
  "##टक": 76826,
  "兎": 2436,
  "coloniale": 95607,
  "ventre": 103913,
  "дело": 29112,
  "##یس": 22147,
  "champs": 88098,
  "##dotta": 104136,
  "dalyje": 61257,
  "Housing": 52229,
  "##에게": 26212,
  "Legal": 43109,
  "##线": 116091,
  "##hauer": 81460,
  "##ringen": 28936,
  "##פן": 25534,
  "defined": 23908,
  "Luftwaffe": 34424,
  "640": 30127,
  "##нятия": 73766,
  "BS": 43436,
  "廠": 3690,
  "khai": 37949,
  "##ネット": 50217,
  "1098": 78498,
  "##lógico": 59069,
  "Paula": 24392,
  "líneas": 43386,
  "سریال": 81866,
  "##ולוגיה": 95423,
  "ಮುಖ್ಯ": 65145,
  "castellán": 69738,
  "##ীতে": 90535,
  "##帧": 113383,
  "aquel": 27599,
  "Chemical": 25660,
  "nhưng": 15662,
  "##ὰ": 111604,
  "ರಿಂದ": 104167,
  "släkte": 26615,
  "róla": 97787,
  "používá": 57107,
  "Египет": 62829,
  "Ausbruch": 101456,
  "Edited": 107047,
  "enn": 17776,
  "cours": 14211,
  "introduzione": 80999,
  "հետ": 14631,
  "mercat": 74485,
  "зробити": 103863,
  "ler": 92394,
  "##松": 114277,
  "befördert": 64596,
  "##剃": 112329,
  "擋": 4251,
  "まれる": 32839,
  "పైబడిన": 14857,
  "Allgemeine": 55212,
  "##чийн": 76802,
  "掟": 4156,
  "##alo": 22219,
  "Greater": 32543,
  "Burn": 49331,
  "828": 57721,
  "##נציה": 99221,
  "Ver": 41357,
  "Кога": 93854,
  "όλων": 105446,
  "Fundação": 84610,
  "złoty": 71078,
  "##ուցիչ": 96737,
  "##ுத்தும்": 100977,
  "Casey": 32759,
  "Реал": 87046,
  "##ítottak": 72292,
  "##디오": 66016,
  "##ತೆಯನ್ನು": 105323,
  "펠": 9921,
  "##јског": 68283,
  "врз": 64018,
  "280": 17859,
  "funzioni": 59775,
  "陨": 8226,
  "##깔": 118674,
  "##zki": 26480,
  "Wiener": 21577,
  "##оса": 40478,
  "grupės": 68966,
  "##odea": 78155,
  "für": 10307,
  "demografiala": 41509,
  "こ": 1919,
  "##밸": 118972,
  "oude": 28533,
  "права": 17319,
  "154": 20481,
  "hiervoor": 102073,
  "##ೇ": 20711,
  "1830": 14534,
  "Orne": 59934,
  "druhy": 52634,
  "ejército": 26231,
  "##ovec": 107108,
  "направлен": 86867,
  "##selt": 26063,
  "ornamental": 107334,
  "##ੱਖਿਆ": 85917,
  "Eski": 78920,
  "##ոտ": 71146,
  "woorden": 98664,
  "g": 175,
  "룩": 9214,
  "Bundesliga": 21436,
  "##ूत": 59342,
  "##gün": 64093,
  "##물을": 69047,
  "魂": 8615,
  "πρωτεύουσα": 100057,
  "possibilidade": 110610,
  "Hilbert": 90814,
  "##ків": 14976,
  "##ngene": 97839,
  "##ạc": 31607,
  "##чает": 52928,
  "ноември": 27095,
  "necesaria": 90316,
  "##bate": 59173,
  "训": 7305,
  "książę": 67949,
  "konpontze": 40684,
  "##xter": 66432,
  "około": 20446,
  "йәки": 83834,
  "ती": 68613,
  "انتشارات": 74693,
  "Honoré": 72073,
  "deportista": 80247,
  "弄": 3705,
  "Rufus": 73109,
  "##motnost": 109916,
  "感": 3911,
  "Манчестер": 81485,
  "受": 2738,
  "Italijanski": 29339,
  "謄": 7260,
  "Większość": 94951,
  "##مد": 39260,
  "Jaén": 82537,
  "Nacionalni": 35596,
  "desarrollado": 61034,
  "kara": 33603,
  "##isce": 26046,
  "##σείο": 87132,
  "螯": 7042,
  "##az": 16724,
  "##κολούθησε": 93671,
  "##ävä": 81889,
  "##аку": 74865,
  "##κές": 35705,
  "iad": 46109,
  "##volle": 50442,
  "gjithë": 54942,
  "##nischer": 56636,
  "##詩": 116968,
  "803": 77215,
  "##şk": 108660,
  "iyi": 33461,
  "LCD": 67564,
  "Weltkrieg": 19666,
  "##苷": 116484,
  "diez": 33249,
  "Santuario": 99353,
  "##kom": 12910,
  "##زراعة": 85565,
  "##grund": 39532,
  "1000": 12186,
  "رو": 55532,
  "физика": 58975,
  "1905": 11812,
  "##ехь": 35054,
  "う": 1907,
  "της": 10470,
  "Americii": 99657,
  "Aderyn": 64353,
  "##鲍": 118448,
  "חברת": 30103,
  "##ชาติ": 95809,
  "जुन": 24342,
  "struttura": 27658,
  "юхать": 36492,
  "##laisissa": 96610,
  "entrada": 20111,
  "ต": 1413,
  "sword": 79400,
  "##绘": 116107,
  "Mesa": 25076,
  "قرى": 45697,
  "##ाना": 47544,
  "teils": 59335,
  "##轧": 117404,
  "##osant": 101738,
  "##туп": 109380,
  "argentino": 27973,
  "azken": 67994,
  "##łowych": 91223,
  "##۶": 21141,
  "зрителей": 99052,
  "##忙": 113567,
  "Ako": 35882,
  "##γικό": 75406,
  "##బడింది": 76498,
  "##vían": 79731,
  "sessuale": 106875,
  "председателем": 61387,
  "Raden": 105959,
  "##bà": 54148,
  "##enar": 82706,
  "Ташкент": 106412,
  "##ár": 16459,
  "##teilen": 96164,
  "##kovo": 95380,
  "##uli": 24207,
  "##○": 111740,
  "たな": 61143,
  "##גרסה": 94159,
  "##藔": 116686,
  "##ூடிய": 68536,
  "818": 75310,
  "그녀는": 83855,
  "उत्पादन": 72036,
  "estatubatuar": 90838,
  "Tomb": 72076,
  "##船": 116422,
  "ₘ": 1769,
  "##笞": 115824,
  "Come": 16336,
  "contato": 101912,
  "##crat": 79203,
  "##fera": 25763,
  "fecero": 96042,
  "##烈": 115059,
  "##霍": 118073,
  "исте": 110832,
  "##彪": 113517,
  "##碗": 115632,
  "إيطاليا": 62771,
  "##żnym": 87419,
  "##喬": 112693,
  "##骏": 118340,
  "נוספת": 48878,
  "Turquia": 80356,
  "Abigail": 91664,
  "badly": 91810,
  "treated": 45369,
  "istituto": 94913,
  "publicado": 20407,
  "##segna": 89064,
  "##闆": 117918,
  "##ліна": 77502,
  "Schloss": 20466,
  "hip": 25377,
  "讥": 7301,
  "ocato": 59055,
  "##ůvodem": 110757,
  "##浑": 114757,
  "##gründer": 58080,
  "땃": 9134,
  "muzyka": 102992,
  "##慳": 113700,
  "структура": 28129,
  "ఏ": 1196,
  "Atkins": 83399,
  "##ಳನ್ನು": 99978,
  "##וסד": 94033,
  "##वळ": 95038,
  "capture": 32083,
  "Guimarães": 93092,
  "иза": 40672,
  "蜚": 7008,
  "songen": 44501,
  "驻": 8562,
  "Insgesamt": 39953,
  "Gamble": 105899,
  "nasjonale": 77025,
  "banda": 12274,
  "Mathieu": 48232,
  "##浔": 114760,
  "impact": 21316,
  "tâm": 21588,
  "##μείο": 107400,
  "##◡": 111743,
  "аға": 30628,
  "Sivas": 104362,
  "Comuna": 66193,
  "##altet": 63669,
  "augustā": 87992,
  "##desi": 94228,
  "##యాలు": 76795,
  "##blja": 94572,
  "Krzyżem": 79833,
  "##шує": 86587,
  "Flesh": 92244,
  "##ucció": 93822,
  "焦": 5319,
  "планина": 72479,
  "##麾": 118561,
  "Laufe": 42179,
  "##авная": 64717,
  "鰹": 8659,
  "##енно": 56717,
  "त्यांना": 72015,
  "КОАТУУ": 95448,
  "травня": 23166,
  "ity": 29022,
  "##ख्या": 50669,
  "##迹": 117481,
  "presença": 50757,
  "##нің": 22751,
  "##肖": 116270,
  "titul": 35984,
  "len": 28859,
  "⚭": 1876,
  "colors": 36888,
  "##ука": 37087,
  "Mens": 48609,
  "новий": 53518,
  "##醋": 117650,
  "##rafia": 79615,
  "##γων": 61641,
  "prises": 70053,
  "російський": 79749,
  "##tný": 65754,
  "річці": 85578,
  "SpeciesFile": 53458,
  "printed": 44632,
  "##rò": 31408,
  "##erea": 54386,
  "1649": 39760,
  "รับบท": 33366,
  "##mı": 36544,
  "slutt": 56595,
  "Spiritual": 102009,
  "##zeitschrift": 107463,
  "##ྱ": 111469,
  "##睐": 115546,
  "##募": 112395,
  "Mendelssohn": 83256,
  "выборах": 56222,
  "Schreiber": 108995,
  "alliance": 36758,
  "informasi": 65584,
  "Franche": 30135,
  "Nederlân": 92245,
  "##鈣": 117690,
  "сөздүгү": 83854,
  "ieu": 17950,
  "##塁": 112886,
  "紅": 6181,
  "evangelisch": 98911,
  "##שטח": 62283,
  "##oney": 87185,
  "##čne": 16897,
  "کہا": 47711,
  "##ụy": 83585,
  "##iamo": 109127,
  "Пфальц": 99354,
  "##唇": 112644,
  "statua": 63173,
  "麿": 8796,
  "##јзиниот": 104824,
  "lågvuxen": 78671,
  "ಅಲ್ಲಿ": 99079,
  "##wick": 24820,
  "##riske": 99067,
  "##와의": 92019,
  "##udi": 35772,
  "1521": 39501,
  "##முறை": 56954,
  "un": 10119,
  "fazie": 105760,
  "братьев": 102370,
  "redor": 38800,
  "Additionally": 40971,
  "Scooby": 78019,
  "##ovský": 93855,
  "greco": 34301,
  "##ਟਰੀ": 103360,
  "##пит": 80465,
  "ѐ": 573,
  "doszło": 57505,
  "##bei": 40946,
  "funnet": 58510,
  "امر": 82342,
  "sång": 54724,
  "##ზა": 57609,
  "friidrett": 69774,
  "槭": 4708,
  "Rubiaceae": 70988,
  "##rinus": 107051,
  "##hemmat": 106236,
  "##넬": 118737,
  "ӳ": 624,
  "##ロシア": 109610,
  "##ність": 18635,
  "galaktika": 75130,
  "Lockheed": 47487,
  "仅": 2184,
  "expressions": 87621,
  "##rwydd": 107789,
  "##כירה": 88802,
  "Aboriginal": 78459,
  "способности": 82779,
  "Tai": 25633,
  "comédie": 49563,
  "##րյան": 69472,
  "Ellie": 89689,
  "##өн": 23803,
  "endast": 38898,
  "френски": 64244,
  "##水": 114633,
  "позже": 30532,
  "##蝽": 116801,
  "denumirea": 105809,
  "kingdom": 12293,
  "regras": 95359,
  "##も": 13291,
  "妮": 3259,
  "##ł": 11133,
  "##bor": 16368,
  "##ப்பாக": 68644,
  "##чный": 25711,
  "Tesla": 56035,
  "Dès": 37579,
  "##狡": 115199,
  "##эр": 19837,
  "壞": 3163,
  "##мене": 64023,
  "##ノ": 34747,
  "##igencia": 80922,
  "در": 10239,
  "particolare": 18876,
  "##niem": 30972,
  "ա": 668,
  "##ційного": 68632,
  "стрелкового": 76663,
  "standing": 32173,
  "##дио": 83871,
  "##στών": 64352,
  "contestant": 96509,
  "beispielsweise": 22834,
  "##ugat": 52847,
  "הפועל": 76590,
  "##чила": 49550,
  "ш": 565,
  "##ಯನ್": 68243,
  "##sok": 85491,
  "##effer": 73058,
  "poet": 24633,
  "琶": 5535,
  "manifestations": 84238,
  "##თში": 56043,
  "entrance": 33365,
  "bispo": 58890,
  "Free": 16122,
  "##erung": 17774,
  "wieku": 14878,
  "prvý": 69322,
  "##MA": 30696,
  "馴": 8515,
  "فوت": 52638,
  "Свердловской": 84042,
  "quoi": 84359,
  "##agen": 37667,
  "##ânt": 78844,
  "##عی": 40750,
  "степень": 55803,
  "commanding": 93644,
  "قرن": 42763,
  "calculer": 100972,
  "quedan": 101985,
  "single": 11376,
  "leggere": 101939,
  "##һын": 84228,
  "بذلك": 73954,
  "يظهر": 99398,
  "Lowell": 60952,
  "gebaseerd": 48651,
  "يزيد": 90511,
  "##брзо": 79912,
  "नाप": 30192,
  "Observer": 52648,
  "pasajeros": 74667,
  "внутрішніх": 104376,
  "##irata": 106707,
  "##νους": 88727,
  "blok": 61657,
  "##ुट": 90434,
  "##rações": 102913,
  "我": 3976,
  "##viet": 88445,
  "##ned": 17021,
  "##ník": 22956,
  "Кубке": 93912,
  "coffee": 69954,
  "например": 20050,
  "Kao": 32411,
  "##яването": 77112,
  "##vised": 46836,
  "##נה": 12182,
  "ambos": 18860,
  "##rillo": 96382,
  "##nament": 110170,
  "##akon": 75964,
  "##hem": 25947,
  "devem": 80860,
  "ひ": 1950,
  "滦": 5145,
  "puente": 51898,
  "surgeon": 105343,
  "Colombia": 15223,
  "största": 16341,
  "##ấu": 35823,
  "##vým": 62725,
  "راه": 31688,
  "отримав": 26023,
  "sofort": 66593,
  "olimpici": 75715,
  "étudiants": 46802,
  "##屋": 113256,
  "##pena": 53303,
  "cây": 30054,
  "sopra": 35099,
  "##詞": 116962,
  "##jalla": 86208,
  "Terminator": 99017,
  "443": 42986,
  "##瓊": 115345,
  "姐": 3270,
  "##江": 114654,
  "והיה": 52588,
  "녹": 9023,
  "businessman": 49910,
  "##歳": 114566,
  "##טוס": 81206,
  "##רות": 18448,
  "quai": 89741,
  "soggetto": 61111,
  "##腊": 116336,
  "Jerman": 19455,
  "##倪": 112113,
  "abitato": 60855,
  "##힙": 119472,
  "##kee": 49721,
  "男": 5615,
  "وذلك": 26281,
  "1126": 52551,
  "wars": 68756,
  "створений": 94101,
  "##ಾರಿಗೆ": 92162,
  "Belt": 55905,
  "medaili": 107961,
  "##瀝": 115008,
  "##ல்": 13693,
  "очков": 65764,
  "Shire": 82596,
  "##テレビ": 31627,
  "銑": 7949,
  "1582": 46636,
  "峰": 3539,
  "gol": 15558,
  "mi": 12132,
  "##قوب": 106967,
  "pathway": 110683,
  "##蹦": 117346,
  "##ಸು": 64643,
  "##ేజీ": 68695,
  "forcing": 75098,
  "اختلاف": 83694,
  "##tání": 62499,
  "level": 13277,
  "Новое": 90161,
  "##приятия": 96794,
  "ներկայացնում": 94869,
  "##uchen": 59953,
  "involvement": 47167,
  "委": 3273,
  "##ssu": 102670,
  "Української": 55266,
  "##ьного": 23644,
  "얇": 9542,
  "صرف": 47030,
  "##ván": 26235,
  "ийн": 82087,
  "##iola": 63005,
  "internationalen": 29332,
  "ambient": 66685,
  "authored": 67096,
  "כתוצאה": 52454,
  "nowych": 62122,
  "۲۰۰۸": 67816,
  "Веракруз": 52673,
  "##kretær": 105136,
  "##粽": 115927,
  "##卯": 112460,
  "Alumni": 92997,
  "Kommun": 105712,
  "Putih": 107712,
  "隠": 8254,
  "툴": 9883,
  "pau": 71548,
  "strade": 71588,
  "olmayan": 47261,
  "矶": 5825,
  "##آ": 111170,
  "껏": 8950,
  "1562": 48738,
  "siglo": 13673,
  "Академії": 93981,
  "Kiel": 32329,
  "##rən": 75917,
  "considerably": 91499,
  "ค": 1397,
  "Město": 68807,
  "##theorie": 94256,
  "vattenytor": 59127,
  "##its": 15508,
  "##ಕಾರದ": 94641,
  "##itch": 87976,
  "กรกฎาคม": 45093,
  "Burger": 58993,
  "##ई": 15801,
  "##残": 114580,
  "Stan": 26637,
  "locais": 40941,
  "argento": 34697,
  "vasi": 86717,
  "##crático": 70385,
  "##ledes": 55043,
  "Dub": 51536,
  "##στήριο": 107551,
  "Magda": 86021,
  "математика": 72524,
  "među": 28889,
  "##nsen": 41547,
  "##薙": 116668,
  "공립": 98937,
  "اروپا": 48541,
  "grabación": 56535,
  "Jón": 85372,
  "##旛": 114111,
  "##dola": 82961,
  "##પે": 108928,
  "ఒక": 14313,
  "जैसे": 30224,
  "Histoire": 19712,
  "嫁": 3327,
  "##amental": 50938,
  "그들은": 103087,
  "##йшов": 50371,
  "cinta": 36479,
  "approximately": 17384,
  "cam": 88406,
  "##өйөк": 110495,
  "Primul": 94534,
  "##уі": 96587,
  "site": 11920,
  "élus": 60192,
  "##étrica": 74398,
  "##貨": 117187,
  "Dre": 72531,
  "jour": 16947,
  "##šte": 25861,
  "##翌": 116204,
  "##び": 59969,
  "spiral": 85496,
  "##хьара": 101976,
  "Icelandic": 108338,
  "##芍": 116444,
  "kuulub": 78567,
  "drew": 49098,
  "Days": 19167,
  "looking": 34279,
  "##甚": 115364,
  "##滞": 114907,
  "##蚣": 116736,
  "Sri": 16098,
  "Neptune": 53780,
  "370": 24145,
  "Croatian": 48963,
  "bertahan": 90873,
  "##isiert": 38446,
  "אור": 58223,
  "estate": 19027,
  "zugelassen": 101174,
  "Epidendrum": 104553,
  "动": 2601,
  "Augen": 59005,
  "పశు": 40766,
  "tekst": 23391,
  "##ների": 12170,
  "##ĕнче": 29726,
  "anciennement": 89415,
  "##streeks": 84822,
  "ഢ": 1346,
  "videojuego": 94915,
  "##ейской": 94565,
  "최대": 99405,
  "##šina": 31373,
  "ἡ": 1702,
  "CP": 40070,
  "Інфармацыя": 56994,
  "onbekend": 94590,
  "##oosten": 53557,
  "##%": 110855,
  "zenei": 76286,
  "##fford": 98680,
  "layanan": 92363,
  "vyšší": 74259,
  "瓯": 5590,
  "貞": 7416,
  "Nuova": 37393,
  "hem": 14166,
  "##oga": 25201,
  "formada": 26034,
  "overtok": 85962,
  "ఫ": 1221,
  "铂": 8069,
  "##kona": 84529,
  "январехь": 88190,
  "Σεπτεμβρίου": 58402,
  "тӯли": 65242,
  "abgelöst": 97473,
  "teritorija": 29318,
  "##婦": 113078,
  "##sje": 31205,
  "Details": 67873,
  "Emma": 20548,
  "terrängen": 19620,
  "##انا": 37641,
  "లోపే": 77737,
  "##psal": 86663,
  "estremità": 103626,
  "پروژه": 108531,
  "##лку": 60110,
  "##digan": 66637,
  "##мым": 80128,
  "là": 10331,
  "leggermente": 92015,
  "##dì": 96767,
  "##ఞ": 111333,
  "##еров": 76538,
  "##jalnych": 97821,
  "棵": 4642,
  "##מצעד": 95677,
  "kilometara": 101665,
  "##齣": 118593,
  "Коди": 26007,
  "durchsetzen": 105281,
  "##тву": 46229,
  "##чёта": 66470,
  "##тни": 38842,
  "畜": 5626,
  "Derek": 30815,
  "алады": 66514,
  "Egito": 108790,
  "##žení": 26980,
  "യ": 1358,
  "##iono": 39176,
  "##iai": 17259,
  "##נצח": 83916,
  "##χίες": 97265,
  "流": 4982,
  "##lerini": 25896,
  "夥": 3196,
  "smatra": 44314,
  "Campeonato": 15146,
  "##aj": 21171,
  "Massacre": 68525,
  "晋": 4391,
  "##ยม": 80785,
  "درگذشته": 106092,
  "##asă": 66141,
  "揶": 4192,
  "położony": 65076,
  "##قاومة": 75245,
  "##、": 111764,
  "##तो": 49230,
  "ponekad": 76181,
  "296": 31262,
  "arabo": 82331,
  "##ైట్": 110649,
  "Marketing": 46842,
  "Barton": 48849,
  "##инде": 72139,
  "enfoque": 102632,
  "stille": 95414,
  "Sumatra": 33223,
  "But": 16976,
  "##مام": 66535,
  "##عين": 34163,
  "##gegaan": 104961,
  "##ency": 87415,
  "HTML": 34490,
  "##רש": 39308,
  "mosaik": 28112,
  "##عداد": 32841,
  "goli": 105900,
  "Confederation": 85398,
  "内": 2468,
  "##lais": 41911,
  "##zade": 84005,
  "##iaeth": 53567,
  "поради": 23217,
  "détaillé": 62447,
  "##χία": 81234,
  "##guo": 94464,
  "髙": 8596,
  "##ース": 25071,
  "Его": 20544,
  "##hik": 87600,
  "##గ్రామంలో": 59521,
  "渉": 5064,
  "koncertu": 109732,
  "flowing": 109769,
  "Hus": 109022,
  "ties": 45169,
  "WWF": 36014,
  "##kretär": 90877,
  "##ôle": 54634,
  "##ler": 10815,
  "##čani": 89191,
  "Kriegsmarine": 81498,
  "Derby": 24703,
  "absorbed": 89660,
  "##ಯ": 13350,
  "Mode": 37923,
  "##؟": 111169,
  "мушкараца": 105138,
  "祖": 5910,
  "ః": 1187,
  "adapted": 40851,
  "##nama": 57905,
  "magic": 55909,
  "##dest": 66804,
  "Khoa": 74271,
  "verpflichtet": 65828,
  "nieder": 63694,
  "sketch": 83413,
  "##inska": 85407,
  "##tzt": 91017,
  "partiellement": 33089,
  "幸": 3644,
  "ਤੱਕ": 52383,
  "केवल": 46605,
  "##matidae": 90160,
  "teologia": 76310,
  "##fia": 29347,
  "publicly": 53577,
  "딪": 9129,
  "##yw": 52465,
  "placa": 57474,
  "Falco": 70170,
  "##ang": 11889,
  "Києва": 65611,
  "reduziert": 96132,
  "##wach": 60118,
  "##沫": 114689,
  "##나": 16439,
  "##酗": 117631,
  "Hukum": 83128,
  "##gda": 88348,
  "wyniku": 30040,
  "##álló": 68107,
  "##閩": 117911,
  "Galega": 62732,
  "вступив": 83678,
  "Entwurf": 63900,
  "##ängt": 65578,
  "##midade": 94107,
  "Myers": 43781,
  "Osborn": 110705,
  "##들": 27023,
  "Madhya": 91952,
  "##ீன": 106326,
  "флота": 36037,
  "##oris": 81597,
  "闰": 8169,
  "鉄": 7932,
  "عمرو": 91884,
  "mariajita": 75450,
  "каталогтағы": 64218,
  "remise": 88122,
  "##前": 112334,
  "onda": 22252,
  "##edik": 69434,
  "yhä": 86212,
  "##爹": 115155,
  "Finnmark": 90063,
  "鴎": 8716,
  "Ebene": 46517,
  "diploma": 43087,
  "骅": 8569,
  "Übergang": 86290,
  "##gió": 47017,
  "##едь": 102013,
  "##vement": 86253,
  "passed": 20006,
  "##ше": 13391,
  "Catharina": 79241,
  "##ійний": 79701,
  "Ale": 59340,
  "##سل": 32219,
  "Ketua": 35420,
  "##iehen": 55382,
  "дохил": 24851,
  "ಮೂಲಕ": 30630,
  "berdasarkan": 35047,
  "##ją": 12110,
  "іншого": 74410,
  "професор": 32861,
  "1754": 32908,
  "##्षण": 64034,
  "Croacia": 95012,
  "بالقرب": 85290,
  "##ぁ": 111786,
  "arasındaki": 56199,
  "پسر": 57914,
  "politik": 19470,
  "Velázquez": 86443,
  "##rament": 59823,
  "Renoir": 106741,
  "Troyes": 73670,
  "##trin": 109163,
  "Հայտնաբերվել": 97433,
  "performances": 22744,
  "##μάστηκε": 107638,
  "ans": 11744,
  "destroyed": 24089,
  "##bler": 47745,
  "CoA": 104842,
  "Dʳ": 72387,
  "sastāvā": 54337,
  "##ষ্ট": 38695,
  "##llende": 101726,
  "rapidamente": 40691,
  "Oulun": 95475,
  "捏": 4127,
  "##קי": 30177,
  "##ческую": 34473,
  "Antônio": 38354,
  "союз": 55975,
  "كثير": 63189,
  "françaises": 40049,
  "Temmuz": 34064,
  "##трий": 88015,
  "עונה": 67349,
  "##aurus": 97271,
  "disaster": 63913,
  "байсан": 27490,
  "##zetek": 94605,
  "##赌": 117277,
  "##овив": 72988,
  "nejsou": 74415,
  "القرن": 23007,
  "##нен": 23045,
  "armate": 71111,
  "##老": 116221,
  "llarga": 68884,
  "Jepun": 36402,
  "elää": 110456,
  "##Ⅱ": 111670,
  "##常": 113392,
  "קודם": 62306,
  "במרץ": 36195,
  "Dieu": 27562,
  "consenso": 82711,
  "tanàna": 18614,
  "##irkan": 85644,
  "shallow": 90351,
  "##横": 114492,
  "##dena": 53091,
  "##ждане": 88745,
  "יכולה": 82179,
  "##母": 114600,
  "considerados": 63586,
  "##נהל": 96860,
  "##skab": 55551,
  "bi": 11342,
  "ವ": 1291,
  "században": 35468,
  "갑": 8849,
  "##住": 112014,
  "komme": 35796,
  "੫": 1063,
  "қалалық": 109495,
  "##זיה": 55408,
  "Castrum": 102878,
  "##نید": 104682,
  "части": 14559,
  "漏": 5159,
  "##gte": 18423,
  "##égué": 108704,
  "வேண்டும்": 44016,
  "##ッ": 111820,
  "retrouvent": 107805,
  "tudta": 98126,
  "##తం": 42291,
  "VP": 100188,
  "مسابقه": 87299,
  "דומה": 61954,
  "##ხადა": 95792,
  "##тата": 34502,
  "##ške": 19183,
  "##ilia": 58292,
  "751": 64176,
  "trò": 32457,
  "##رک": 63325,
  "##nnut": 82143,
  "dobili": 100706,
  "Johansson": 40211,
  "aboard": 65331,
  "##ór": 22217,
  "Esercito": 105589,
  "##수로": 91921,
  "služby": 56978,
  "כמעט": 49662,
  "parlà": 50525,
  "##áneamente": 105766,
  "tók": 79676,
  "rodada": 80589,
  "旷": 4357,
  "ಅತ್ಯಂತ": 48991,
  "kallar": 49477,
  "##ينا": 67211,
  "ebből": 95239,
  "изток": 81548,
  "##튜": 119368,
  "俭": 2321,
  "Serbien": 89459,
  "##vazione": 102873,
  "目": 5755,
  "1836": 16593,
  "##כ": 36051,
  "Fransya": 42274,
  "Усть": 56890,
  "бива": 109096,
  "związanych": 106147,
  "Amás": 52881,
  "bezit": 64656,
  "nécessité": 106464,
  "Private": 26867,
  "desarrollo": 21154,
  "##greso": 77993,
  "באוניברסיטה": 100074,
  "chứa": 49373,
  "دونوں": 94039,
  "jonka": 15992,
  "murdered": 65861,
  "##יר": 16660,
  "##უმი": 98850,
  "Problem": 33918,
  "座": 3671,
  "parceria": 82327,
  "##μαν": 104729,
  "ắ": 1654,
  "##eration": 58656,
  "1729": 40400,
  "##льской": 44428,
  "cordes": 69378,
  "##reiben": 52069,
  "WK": 41107,
  "لهستان": 65885,
  "catégories": 91081,
  "##аан": 99170,
  "势": 2612,
  "##турный": 108253,
  "politiska": 88983,
  "အဖြစ်": 83384,
  "Salt": 29243,
  "tiež": 32496,
  "ɕ": 390,
  "հանդիպում": 91146,
  "##諮": 117016,
  "4": 125,
  "绥": 6351,
  "Urbino": 87126,
  "Tomorrow": 37670,
  "烯": 5305,
  "##américa": 55535,
  "##шных": 77013,
  "##נערך": 104346,
  "nằm": 21152,
  "चिकुइ": 67514,
  "Hij": 12076,
  "pueblu": 53304,
  "Beau": 85867,
  "illas": 85970,
  "蚣": 6970,
  "224": 21652,
  "##dora": 22885,
  "đồ": 37691,
  "Print": 75997,
  "##ડા": 59312,
  "##钨": 117822,
  "набор": 108784,
  "##lte": 17098,
  "Zee": 59869,
  "腻": 6589,
  "##SL": 51960,
  "##child": 85123,
  "บาท": 105770,
  "Novara": 76950,
  "Đường": 47991,
  "também": 11961,
  "siły": 63625,
  "orbitalis": 75336,
  "vinse": 49125,
  "disposition": 65842,
  "##ирование": 75281,
  "மிக": 77909,
  "básica": 95058,
  "Opole": 106841,
  "历": 2707,
  "Czech": 22148,
  "##friend": 97856,
  "213": 22066,
  "lago": 25478,
  "шо": 66722,
  "##sumi": 83161,
  "##奘": 112990,
  "##ਕੇ": 52749,
  "##vint": 87402,
  "##wen": 19584,
  "saluran": 29466,
  "##fang": 68781,
  "##্ঞান": 70414,
  "означает": 68567,
  "joskus": 91853,
  "825": 62553,
  "Hitlers": 108094,
  "##ächsischen": 53084,
  "českého": 70033,
  "##鞮": 118121,
  "فشار": 85327,
  "Guillaume": 20619,
  "##tente": 96284,
  "##ותה": 58371,
  "Morbihan": 83785,
  "notar": 92370,
  "##лины": 54696,
  "frequenza": 108973,
  "六": 2453,
  "mother": 15293,
  "##dler": 29660,
  "Griffiths": 69625,
  "generi": 82890,
  "Marines": 52061,
  "##ża": 19025,
  "americanos": 53511,
  "##۷۸": 71559,
  "##𩾌": 119546,
  "##雁": 118035,
  "##יכו": 98649,
  "नगर": 52851,
  "viagem": 81023,
  "کیلومتری": 77437,
  "RAF": 25828,
  "divine": 70687,
  "چینی": 88984,
  "##蜆": 116766,
  "##طاع": 62884,
  "geri": 31644,
  "##ленні": 69390,
  "眙": 5767,
  "##ido": 12306,
  "##èse": 45810,
  "tzv": 19856,
  "남자": 76854,
  "##ਹੇ": 58125,
  "filmben": 99449,
  "##筍": 115837,
  "##羟": 116187,
  "##闯": 117934,
  "канал": 41308,
  "Kirchner": 108314,
  "##ender": 27323,
  "junta": 67656,
  "##ৃ": 111237,
  "Galatasaray": 51958,
  "##キ": 31656,
  "حكومة": 74429,
  "depicting": 97075,
  "##zioro": 78882,
  "etməyə": 95622,
  "trabajos": 36487,
  "##γησε": 57185,
  "Arad": 71193,
  "Орусия": 101827,
  "##اليا": 84345,
  "##றி": 50063,
  "Dinasti": 81659,
  "##عف": 99342,
  "663": 66760,
  "вновь": 25698,
  "##istics": 108477,
  "assieme": 33683,
  "identify": 51361,
  "quartiers": 68197,
  "灿": 5267,
  "wyspie": 99003,
  "distant": 73231,
  "##hra": 36274,
  "##gelassen": 83729,
  "nere": 71081,
  "盐": 5739,
  "pessoas": 21000,
  "Gérard": 26359,
  "władze": 62980,
  "Tipo": 84083,
  "##емята": 95869,
  "##וני": 21546,
  "редко": 99004,
  "##рупный": 101227,
  "Ibsen": 91558,
  "العرب": 45842,
  "##eli": 17641,
  "##kä": 61256,
  "##гло": 77162,
  "Cross": 15666,
  "जारी": 73515,
  "Bare": 104412,
  "##istig": 95077,
  "##نغ": 83764,
  "lorsque": 26340,
  "hezkuntzako": 48648,
  "od": 10311,
  "##sstraße": 75983,
  "##йл": 70301,
  "senere": 15857,
  "วัน": 99530,
  "##唖": 112648,
  "##endi": 77089,
  "074": 101649,
  "##莪": 116541,
  "⟩": 1879,
  "զարգացման": 63130,
  "##resa": 41604,
  "##taro": 64618,
  "ਟ": 1025,
  "##デン": 98571,
  "ஆம்": 18482,
  "##凉": 112270,
  "aut": 49523,
  "koristiti": 90442,
  "positions": 23188,
  "mulher": 43159,
  "somewhat": 43203,
  "berjudul": 58669,
  "##žeras": 104673,
  "Юханшыв": 20765,
  "uwagę": 85957,
  "العلم": 62320,
  "Near": 16140,
  "Fred": 16887,
  "possível": 39822,
  "Paus": 53324,
  "Һыу": 35505,
  "deciso": 72756,
  "##诱": 117118,
  "maintain": 37215,
  "లోను": 39180,
  "##rsi": 15241,
  "##憍": 113705,
  "керівник": 108138,
  "marge": 89378,
  "militante": 71782,
  "حي": 77887,
  "벚": 9343,
  "disappeared": 81466,
  "äbinädon": 32084,
  "sejenis": 82414,
  "##ြစ်": 96494,
  "##mner": 107644,
  "筛": 6078,
  "movie": 18379,
  "##àn": 22039,
  "gdy": 23774,
  "podľa": 36100,
  "عن": 11749,
  "verändert": 78869,
  "wickets": 83839,
  "##зеф": 97160,
  "##장하는": 92516,
  "Gdańsku": 99995,
  "Dne": 55001,
  "Lu": 23859,
  "combinación": 73891,
  "гръцки": 50651,
  "##spelen": 79759,
  "ibu": 36979,
  "##nin": 11802,
  "Bonner": 100278,
  "צבי": 66645,
  "кораблей": 65945,
  "##bles": 14273,
  "النساء": 58344,
  "atd": 98939,
  "##dag": 19115,
  "Zie": 47926,
  "셜": 9444,
  "237": 27173,
  "trouvait": 75266,
  "##ntette": 82744,
  "umgewandelt": 96445,
  "marin": 69344,
  "Emden": 99120,
  "inclusiv": 80714,
  "##runa": 81372,
  "##ு": 18660,
  "##Ե": 111110,
  "vấn": 35560,
  "##цю": 38250,
  "벤": 9346,
  "##谣": 117148,
  "lamela": 87714,
  "veljače": 66658,
  "##ետի": 73813,
  "##ণী": 95888,
  "származású": 98876,
  "##brane": 55165,
  "philosophical": 96693,
  "Malo": 63153,
  "麝": 8783,
  "##昧": 114143,
  "##ző": 16717,
  "Źródło": 92299,
  "##zynski": 85072,
  "##ויות": 27892,
  "##uksi": 52590,
  "##dowych": 62743,
  "##aisia": 109615,
  "##deutschen": 47444,
  "##μένο": 33558,
  "các": 10792,
  "##riebe": 109965,
  "##潁": 114944,
  "starten": 42745,
  "##plain": 88975,
  "##нән": 58832,
  "करून": 59998,
  "gogledd": 102617,
  "grond": 42684,
  "##zel": 19432,
  "画": 5618,
  "Futures": 56713,
  "нему": 61208,
  "Gibraltar": 37823,
  "practical": 52940,
  "##řen": 53712,
  "##्हें": 75517,
  "##wa": 11037,
  "##tura": 13495,
  "néven": 27082,
  "Shot": 57812,
  "georganiseerd": 74098,
  "##参": 112492,
  "罹": 6411,
  "##uuden": 46799,
  "##锈": 117860,
  "##очных": 81748,
  "Lenkijos": 48527,
  "країнах": 74817,
  "Верхняя": 93184,
  "mua": 56944,
  "##lares": 58595,
  "Obgruafa": 105615,
  "لا": 13879,
  "##կարիչ": 91488,
  "blandskog": 18478,
  "##שא": 54392,
  "svjetskog": 47187,
  "защото": 91300,
  "##千": 112433,
  "бригада": 39992,
  "1807": 19599,
  "ár": 70393,
  "##eur": 12986,
  "##蚩": 116738,
  "Jabal": 41288,
  "##וק": 23732,
  "##bistum": 108087,
  "丛": 2091,
  "##ხო": 101405,
  "讫": 7304,
  "Tiere": 42583,
  "Астана": 84831,
  "Abenteuer": 93217,
  "информацию": 99154,
  "##ὐ": 111602,
  "鸯": 8755,
  "痔": 5672,
  "Pan": 18661,
  "através": 21056,
  "##ià": 52032,
  "umro": 72330,
  "fiul": 74904,
  "لحاظ": 79016,
  "##קבע": 74781,
  "##šiu": 86963,
  "lecz": 34492,
  "•": 1729,
  "##晩": 114172,
  "башчысы": 60283,
  "妾": 3264,
  "dilihat": 80752,
  "dagli": 21228,
  "овој": 33690,
  "Table": 34421,
  "ترموشیمی": 83348,
  "##סקה": 93585,
  "##јам": 79751,
  "glavnog": 83327,
  "##أمور": 106649,
  "##ిక": 40469,
  "##翱": 116215,
  "1756": 31586,
  "північно": 104160,
  "##ơi": 37223,
  "##nahmen": 52071,
  "##ктике": 106588,
  "maxime": 64022,
  "##брать": 82045,
  "##തിന്": 94979,
  "per": 10178,
  "институте": 65147,
  "##ந்தார்": 40451,
  "daarin": 93980,
  "##нула": 103614,
  "Gryllidae": 87406,
  "##зінен": 83107,
  "stemma": 91283,
  "errang": 103618,
  "##ید": 19171,
  "##شارك": 71554,
  "nenhuma": 79234,
  "##陀": 117971,
  "##克": 112199,
  "verliet": 101753,
  "##רכים": 58636,
  "##TER": 99552,
  "Pitchfork": 109042,
  "##蒼": 116617,
  "Davies": 23539,
  "瑯": 5556,
  "##蓟": 116627,
  "בניו": 64177,
  "Basque": 74950,
  "JK": 75273,
  "##wcy": 77219,
  "##raj": 45401,
  "##임을": 96972,
  "nest": 51402,
  "璃": 5563,
  "Trainer": 31964,
  "##巨": 113353,
  "̍": 423,
  "##cution": 64195,
  "según": 16029,
  "葳": 6836,
  "Andersson": 36303,
  "Given": 90491,
  "न्ह्य": 74607,
  "Atom": 67754,
  "кушылдыклары": 82987,
  "Београд": 31068,
  "317": 30986,
  "##瞎": 115562,
  "لي": 99777,
  "##sd": 82836,
  "Continental": 27202,
  "##ais": 12985,
  "##zwala": 105882,
  "tema": 13493,
  "volte": 20286,
  "Water": 17702,
  "Luisa": 37335,
  "மொத்தம்": 62798,
  "решением": 83827,
  "actualmente": 23647,
  "##्ता": 43183,
  "gradual": 102414,
  ">": 135,
  "##ظام": 43931,
  "tiene": 12832,
  "ensimmäinen": 25746,
  "##lás": 39374,
  "првата": 99089,
  "687": 64549,
  "တွင်": 22933,
  "##משיך": 59942,
  "moitas": 81219,
  "Jänner": 105531,
  "filmski": 101065,
  "学": 3365,
  "143": 19510,
  "Morocco": 57295,
  "pang": 40452,
  "##γη": 97317,
  "көне": 46008,
  "براساس": 27371,
  "jääb": 97142,
  "Port": 14734,
  "análisis": 52909,
  "##еті": 51989,
  "ਅ": 1007,
  "руск": 17888,
  "や": 1968,
  "糎": 6165,
  "родом": 105159,
  "にした": 59478,
  "à": 254,
  "臼": 6627,
  "Amour": 54311,
  "##yfres": 106854,
  "姬": 3283,
  "зробив": 95398,
  "##獲": 115234,
  "välillä": 44606,
  "Союзу": 61386,
  "##bných": 107972,
  "##resse": 44374,
  "##etaria": 95002,
  "Barcellona": 81832,
  "Neve": 107505,
  "##s": 10107,
  "państwa": 42750,
  "списке": 93269,
  "приходилось": 109228,
  "뛰": 9150,
  "##ಯನ": 97163,
  "##rdt": 102252,
  "oktoober": 97555,
  "##tòria": 109408,
  "bodů": 80557,
  "##歧": 114561,
  "##tów": 24694,
  "##యని": 86877,
  "##чен": 16580,
  "మంచినీటి": 58288,
  "鴻": 8721,
  "اکثر": 75533,
  "Herald": 31052,
  "##집": 38696,
  "addig": 91132,
  "hakkas": 81006,
  "炒": 5273,
  "отбор": 55454,
  "##£": 110884,
  "Mondial": 52325,
  "juventud": 98624,
  "mang": 23912,
  "obou": 70232,
  "потім": 30070,
  "Као": 55708,
  "Daten": 42635,
  "primeru": 74562,
  "##歷": 114568,
  "##όμματος": 102275,
  "poesia": 37966,
  "Cela": 42742,
  "Ű": 362,
  "##eville": 56349,
  "##ენი": 97125,
  "##蔑": 116631,
  "Olímpicos": 29453,
  "##וצאה": 66207,
  "mensen": 25332,
  "angenommen": 68376,
  "općenito": 96634,
  "##houden": 46839,
  "Միջին": 74092,
  "舔": 6640,
  "CF": 29551,
  "Národní": 66639,
  "##щата": 37447,
  "Augustin": 40426,
  "##уются": 96710,
  "Cello": 110673,
  "##illa": 14250,
  "##ҡ": 21043,
  "השני": 22486,
  "926": 75752,
  "batalion": 79508,
  "Rubio": 81885,
  "庠": 3669,
  "##race": 47288,
  "##造": 117506,
  "##жка": 33615,
  "Jean": 10766,
  "guardia": 62642,
  "##pland": 54472,
  "Overseas": 106192,
  "заради": 52165,
  "بھارتی": 72452,
  "ham": 15128,
  "##enan": 108771,
  "данный": 71325,
  "Half": 33100,
  "Scribners": 42800,
  "##再": 112241,
  "mana": 18970,
  "июля": 14782,
  "##hockey": 65143,
  "కానివి": 74978,
  "أوروبا": 41315,
  "малки": 79770,
  "ढ": 878,
  "##isht": 29992,
  "гвардия": 94424,
  "detalles": 81694,
  "韓": 8359,
  "##ителем": 93441,
  "##过": 117459,
  "pretende": 95854,
  "contou": 95967,
  "října": 30387,
  "##ството": 29838,
  "##ógrafo": 62616,
  "8D": 107168,
  "quello": 15494,
  "##нсе": 92222,
  "sản": 16913,
  "measuring": 92267,
  "chansons": 34866,
  "籃": 6132,
  "##niei": 72543,
  "следующим": 88450,
  "諜": 7244,
  "##位": 112012,
  "aproximadament": 72941,
  "##mun": 34326,
  "categoría": 22645,
  "##žero": 106575,
  "##topil": 105806,
  "##雉": 118040,
  "ehemalige": 28820,
  "altezza": 51869,
  "krigen": 28872,
  "dzieci": 31838,
  "Pico": 50839,
  "यांच्या": 70401,
  "hauptsächlich": 33520,
  "universitaria": 105057,
  "Pangeran": 59147,
  "ter": 12718,
  "观": 7157,
  "cílem": 102844,
  "sistema": 11708,
  "榻": 4695,
  "##venuti": 103445,
  "معروف": 35154,
  "Frankreich": 19483,
  "சட்டமன்றத்": 47460,
  "께": 8951,
  "begitu": 59130,
  "诲": 7353,
  "##уется": 62345,
  "गरी": 81994,
  "Schwierigkeiten": 95035,
  "instance": 34469,
  "Neon": 95948,
  "##телството": 85858,
  "trabajando": 78637,
  "confianza": 109541,
  "również": 14004,
  "##ാട്": 65125,
  "고대": 100524,
  "##кото": 39692,
  "жена": 25288,
  "ervoor": 85928,
  "慣": 3929,
  "##ڈا": 68817,
  "##вел": 45862,
  "булып": 19186,
  "тем": 19710,
  "ಬಹಳ": 82734,
  "##keer": 76421,
  "##štiny": 92221,
  "bu": 11499,
  "inglês": 28103,
  "automatic": 57472,
  "teatral": 53686,
  "dır": 61419,
  "Poza": 82831,
  "##ье": 20554,
  "Siedlung": 38904,
  "publiek": 65811,
  "##렛": 118876,
  "اساسيندا": 27099,
  "besser": 53978,
  "propriétaire": 49491,
  "額": 8399,
  "##ț": 33315,
  "verjetno": 108953,
  "##锁": 117856,
  "##鉢": 117706,
  "##škas": 92673,
  "##ole": 20325,
  "##гол": 85952,
  "##vaškem": 109553,
  "##аз": 26313,
  "Qualifikation": 52379,
  "텍": 9867,
  "Louisa": 70345,
  "##۶۳": 96872,
  "ᵢ": 1618,
  "##tě": 31841,
  "germans": 96992,
  "##מדים": 65972,
  "орынбасары": 109406,
  "##紡": 115962,
  "Liv": 73660,
  "conservación": 77849,
  "##handlungen": 69102,
  "большие": 74784,
  "esetben": 75242,
  "lainnya": 22870,
  "##isé": 22853,
  "##cts": 39159,
  "##ьных": 25013,
  "skladatel": 93743,
  "##sholm": 96988,
  "##avour": 99749,
  "##itado": 85338,
  "##ү": 14690,
  "凛": 2510,
  "כי": 13579,
  "membrane": 53489,
  "operazione": 61344,
  "礁": 5891,
  "##沙": 114680,
  "estão": 24062,
  "entrenamiento": 107880,
  "nicknamed": 90822,
  "metal": 13795,
  "ry": 71259,
  "##架": 114298,
  "prévu": 70901,
  "##Ю": 111074,
  "navios": 94824,
  "انتظامی": 73334,
  "##öitä": 79464,
  "stellen": 30354,
  "##垟": 112840,
  "mätare": 50407,
  "##tni": 34431,
  "##elja": 61339,
  "##cjach": 42864,
  "##takse": 43721,
  "##ticu": 62493,
  "##yki": 35696,
  "смрти": 69418,
  "##ҙәре": 79842,
  "##חם": 32255,
  "visiting": 48780,
  "##инского": 55578,
  "едва": 77615,
  "presentado": 72990,
  "Centrală": 65220,
  "##唔": 112647,
  "ولكن": 21585,
  "sáng": 21712,
  "griechischen": 57079,
  "ய": 1164,
  "surat": 50283,
  "##váno": 74600,
  "##定": 113154,
  "##lenen": 71938,
  "鲉": 8681,
  "##рике": 90031,
  "##bord": 56795,
  "簧": 6124,
  "sucedido": 78097,
  "Svezia": 65497,
  "##hosa": 107164,
  "آمریکا": 14167,
  "##čivo": 105151,
  "Praxis": 51284,
  "##đi": 108288,
  "Bates": 33941,
  "766": 74867,
  "##taka": 76369,
  "##mati": 61700,
  "apareix": 55761,
  "##jaga": 55539,
  "##énie": 79723,
  "interprète": 69411,
  "##rria": 109598,
  "mette": 71974,
  "璀": 5561,
  "veu": 56712,
  "##مار": 34653,
  "##毛": 114610,
  "își": 38115,
  "belangrijk": 74471,
  "musical": 13195,
  "##یال": 88671,
  "орналасуы": 30175,
  "##ткан": 87854,
  "##σσα": 47638,
  "CDC": 95265,
  "Economist": 88422,
  "aereo": 56711,
  "Aa": 80131,
  "##taje": 44336,
  "哼": 2874,
  "##זה": 17711,
  "należała": 29756,
  "ಹೊಂದಿದೆ": 61089,
  "bera": 85199,
  "365": 25385,
  "logic": 64988,
  "##дӣ": 108025,
  "1213": 103720,
  "##τικό": 18276,
  "##cov": 36417,
  "tage": 105184,
  "Systematics": 104660,
  "milles": 55216,
  "Break": 38130,
  "##ढ": 111204,
  "Palermo": 26588,
  "scoperta": 66383,
  "##＼": 119535,
  "Haley": 90296,
  "′": 1734,
  "栎": 4565,
  "693": 71073,
  "##ppa": 33729,
  "Олексій": 104138,
  "نظرية": 91346,
  "##ത്തെ": 26695,
  "Yoga": 81546,
  "řady": 82677,
  "##敢": 114067,
  "لدى": 49208,
  "स": 898,
  "روسجا": 83280,
  "##ゆ": 111808,
  "gana": 62330,
  "##旅": 114106,
  "जू्गु": 98840,
  "пар": 66457,
  "tulee": 46323,
  "Eisenach": 93826,
  "##loire": 101011,
  "ਏ": 1013,
  "##orwegen": 110533,
  "嚎": 2982,
  "Poslije": 98250,
  "垄": 3067,
  "Louis": 11334,
  "Technischen": 78133,
  "か": 1911,
  "میتواند": 34451,
  "ін": 37384,
  "erected": 50405,
  "Cool": 40248,
  "##ելի": 40506,
  "##уя": 54568,
  "##дини": 87403,
  "##析": 114284,
  "départements": 39477,
  "などの": 18365,
  "لهیستاندا": 52366,
  "##蔽": 116645,
  "##ros": 12333,
  "قدمت": 108677,
  "emberek": 72634,
  "postać": 68209,
  "##ին": 16128,
  "Eventually": 61920,
  "##惨": 113657,
  "bulegoa": 72063,
  "##ļas": 61979,
  "##九": 111899,
  "Lui": 75625,
  "piliakalnis": 63904,
  "kis": 35595,
  "เพลง": 55672,
  "##pektive": 96030,
  "éstos": 100298,
  "##cure": 55888,
  "##hidae": 46749,
  "376": 36906,
  "Dende": 44843,
  "疚": 5652,
  "##毎": 114601,
  "##országban": 55393,
  "zones": 20437,
  "Late": 25139,
  "##ירה": 27612,
  "lartë": 83930,
  "##احية": 97570,
  "瑤": 5552,
  "##čili": 45481,
  "##erda": 74209,
  "alguna": 33452,
  "##cchie": 91402,
  "농": 9027,
  "Odyssey": 67220,
  "Sagan": 72662,
  "##ắn": 41382,
  "##녔": 118740,
  "##σικής": 91574,
  "teclado": 109670,
  "##pinus": 97485,
  "纥": 6307,
  "官": 3386,
  "Assisi": 94711,
  "před": 21754,
  "అభివృద్ధి": 29792,
  "rekao": 91455,
  "##될": 59330,
  "##ानी": 53271,
  "##mente": 10611,
  "##đen": 32977,
  "comprise": 84495,
  "ideig": 86661,
  "jednostka": 49719,
  "الموجودة": 90453,
  "[unused87]": 87,
  "RT": 56898,
  "ਗਿਆ": 25600,
  "什": 2181,
  "statale": 76661,
  "##ici": 13439,
  "nacionalista": 82355,
  "mão": 77868,
  "##naldo": 101993,
  "##金": 117677,
  "##rore": 70768,
  "expansión": 63523,
  "##ω": 31712,
  "확인": 84300,
  "що": 10864,
  "şehirdir": 98981,
  "hiện": 13526,
  "Göteborgs": 76402,
  "##隔": 118013,
  "1996": 10389,
  "##cor": 49167,
  "stepped": 99116,
  "कई": 26041,
  "Vakarų": 100153,
  "89800": 100700,
  "##стание": 88659,
  "##تگاه": 108324,
  "participer": 56743,
  "##mail": 85505,
  "浓": 4993,
  "##թը": 77512,
  "Beatty": 103043,
  "##ցում": 47059,
  "الطريقة": 98421,
  "једну": 75796,
  "biskupa": 46493,
  "pittore": 38662,
  "1758": 18563,
  "Eagle": 28009,
  "##yrics": 100050,
  "##選": 117545,
  "VW": 108027,
  "istiqomat": 17697,
  "##sais": 98915,
  "medical": 19436,
  "##ógicas": 96670,
  "[unused25]": 25,
  "najbolji": 65973,
  "cuadros": 108890,
  "##rum": 12659,
  "##説": 116995,
  "jedan": 18627,
  "##ческо": 53562,
  "Fakat": 62720,
  "##bining": 87206,
  "baby": 40138,
  "##élt": 67001,
  "якын": 100265,
  "Pemerintah": 74434,
  "Einwohnerzahlen": 106764,
  "愈": 3903,
  "蝓": 7023,
  "počela": 79069,
  "##ući": 105724,
  "##aji": 62310,
  "تحصیل": 37378,
  "##kylä": 90694,
  "##שמור": 106294,
  "وزارة": 48979,
  "średniej": 54627,
  "##рака": 79765,
  "##噴": 112740,
  "##ცა": 35271,
  "##às": 62118,
  "##ką": 15274,
  "Бас": 37727,
  "niemand": 106381,
  "Lamborghini": 109070,
  "##՝": 111144,
  "##langer": 98712,
  "##arri": 71874,
  "##seh": 76422,
  "##syen": 99410,
  "francesos": 101172,
  "ша": 79703,
  "##оле": 64724,
  "Deutsche": 15389,
  "FIPS": 42376,
  "муніципалітет": 32520,
  "##tet": 12392,
  "Minsk": 50415,
  "Doc": 50653,
  "Ogos": 67755,
  "庫": 3672,
  "inglés": 12580,
  "Anglo": 29790,
  "representació": 102982,
  "talento": 62226,
  "##iron": 77762,
  "Treasury": 77201,
  "एकिकरण": 66420,
  "##vyko": 87558,
  "جهة": 33982,
  "grup": 15615,
  "carta": 24044,
  "magnituda": 31105,
  "##omást": 104685,
  "Weltcup": 69370,
  "basketball": 22111,
  "##茴": 116503,
  "Secondo": 25141,
  "делом": 76006,
  "##챌": 119256,
  "osvojil": 82605,
  "##ologo": 100680,
  "génération": 65193,
  "Lucio": 51613,
  "maakt": 17184,
  "##orn": 26302,
  "##ственные": 41144,
  "kurze": 50607,
  "Mitchell": 19906,
  "यदि": 64952,
  "עשר": 71725,
  "Quentin": 38409,
  "ramai": 74392,
  "Stevenson": 46287,
  "##諸": 117020,
  "altare": 55002,
  "günümüzde": 107223,
  "문": 9297,
  "Fakültesi": 68378,
  "Produktionen": 103347,
  "Elise": 83671,
  "representation": 43847,
  "Moon": 16086,
  "坚": 3050,
  "##ับ": 102269,
  "##述": 117478,
  "まる": 48845,
  "cycliste": 71413,
  "##аном": 93724,
  "##tismo": 100033,
  "Mawrth": 85723,
  "توجه": 34299,
  "курса": 104742,
  "paso": 25307,
  "mindössze": 95704,
  "химии": 93701,
  "##ógicos": 82812,
  "##ose": 14569,
  "##аи": 35912,
  "##vido": 44921,
  "##іта": 75238,
  "multimediale": 63091,
  "posisi": 44251,
  "Casa": 15076,
  "граду": 36650,
  "##ttä": 37606,
  "Mitglieder": 25500,
  "יד": 61865,
  "Verhältnis": 55175,
  "започват": 95087,
  "##stück": 39032,
  "##vljena": 65155,
  "beschränkt": 102659,
  "peste": 28222,
  "##حة": 18364,
  "##áno": 44088,
  "##форд": 56066,
  "šeimos": 74996,
  "##xies": 88254,
  "##禪": 115704,
  "Dorado": 100169,
  "lebte": 34643,
  "založen": 101435,
  "smrt": 53232,
  "memenangi": 74749,
  "cinque": 24581,
  "##bito": 48000,
  "vanno": 73178,
  "Picasso": 44128,
  "जिले": 32291,
  "modèles": 56182,
  "##лно": 22789,
  "Auto": 23265,
  "direktør": 61183,
  "##kil": 67365,
  "khó": 54155,
  "##ავიდა": 89438,
  "##崗": 113316,
  "ՀՀ": 40784,
  "administração": 77141,
  "營": 5364,
  "너": 9004,
  "objék": 35850,
  "##рано": 61568,
  "##жных": 28010,
  "##lino": 34525,
  "ဃ": 1495,
  "belonging": 54188,
  "##хист": 103915,
  "##tend": 57477,
  "Arnhem": 76323,
  "Superman": 30048,
  "keerde": 61040,
  "##oča": 82361,
  "firme": 33563,
  "boats": 46760,
  "ਤੋਂ": 16104,
  "##promiso": 98279,
  "Св": 24672,
  "Македония": 32997,
  "Alice": 16062,
  "##ાર": 24985,
  "lande": 45570,
  "batterie": 45711,
  "alphabet": 72599,
  "ივნისი": 86681,
  "杓": 4493,
  "brukar": 102541,
  "##вели": 53615,
  "Präsident": 24571,
  "классов": 91394,
  "Bernd": 49554,
  "##ந்த": 17002,
  "##մը": 81394,
  "მან": 40499,
  "Գ": 627,
  "älifons": 32122,
  "реестрі": 41700,
  "하나이다": 86736,
  "ìa": 101672,
  "bachelor": 58015,
  "##ir": 10835,
  "##ицы": 66045,
  "adding": 44841,
  "Symbol": 73134,
  "##ьев": 35062,
  "##енд": 92154,
  "##窖": 115781,
  "których": 20069,
  "##iller": 62302,
  "Territories": 72615,
  "kashf": 80386,
  "##ימו": 71487,
  "먼저": 104304,
  "##rti": 28304,
  "spelar": 48966,
  "##gelegd": 86332,
  "##რო": 28068,
  "Militar": 33059,
  "lediglich": 31896,
  "Халăх": 106578,
  "##ós": 18998,
  "Staphylinidae": 91361,
  "Poitou": 50958,
  "dotata": 84041,
  "##序": 113424,
  "indrindra": 16850,
  "kereta": 34901,
  "USB": 35276,
  "dite": 44586,
  "Marvin": 44603,
  "##kaita": 105112,
  "яку": 35484,
  "aprender": 95899,
  "##rovato": 103020,
  "comienzos": 66792,
  "##одные": 97610,
  "##usso": 106632,
  "בעונת": 55877,
  "artigos": 83208,
  "النوع": 62666,
  "mechanism": 50706,
  "##壱": 112940,
  "##49": 99808,
  "##♠": 111751,
  "čo": 30950,
  "##яти": 30010,
  "елементи": 50138,
  "##dles": 92503,
  "4º": 61251,
  "##פול": 65186,
  "приблизно": 43409,
  "blieb": 19260,
  "##онского": 104971,
  "Ratu": 61305,
  "јули": 42364,
  "എസ്": 28123,
  "nationality": 91282,
  "##ntana": 105868,
  "autoridade": 57715,
  "przy": 14052,
  "##जे": 77285,
  "Luigi": 17268,
  "忍": 3796,
  "##酣": 117634,
  "##inent": 97922,
  "##補": 116876,
  "97": 12328,
  "##isent": 77066,
  "carácter": 30385,
  "consumo": 39636,
  "##няй": 46369,
  "##seri": 88466,
  "संस्कृति": 109900,
  "תפקיד": 60068,
  "Bài": 91139,
  "símbolo": 45976,
  "감독": 81571,
  "perspectiva": 59012,
  "धासा": 52365,
  "##dotte": 54792,
  "##bat": 18234,
  "vrhu": 99084,
  "marta": 51487,
  "உள்ளன": 34651,
  "碑": 5863,
  "##נתה": 43220,
  "##aniu": 60742,
  "##hin": 14383,
  "##落": 116590,
  "쿄": 9823,
  "Nicola": 31561,
  "noire": 47342,
  "fets": 91348,
  "##mers": 50210,
  "##lban": 100737,
  "##erter": 79056,
  "##posizione": 50134,
  "##جتمع": 69052,
  "##唑": 112646,
  "喷": 2933,
  "தகவல்": 55516,
  "пам": 21759,
  "gate": 40677,
  "##uació": 103048,
  "##gier": 64818,
  "Visuotinė": 79309,
  "డిగ్రీ": 29609,
  "##āju": 79247,
  "երկրի": 88861,
  "##metric": 96018,
  "׳": 750,
  "④": 1834,
  "##ائر": 50141,
  "ledelse": 76355,
  "kurulan": 71790,
  "Justo": 93726,
  "advokat": 109957,
  "##dach": 45948,
  "Hutton": 84219,
  "##रवरी": 84834,
  "Phasmida": 98971,
  "##ഡ": 111391,
  "##jeda": 60177,
  "##utazione": 98353,
  "##hý": 75309,
  "Մ": 644,
  "І": 500,
  "pitkä": 58788,
  "כזה": 108980,
  "номинации": 69978,
  "Saint": 10602,
  "##uet": 58054,
  "esperanza": 91986,
  "لی": 80044,
  "Olímpico": 92353,
  "##quina": 62068,
  "##جلة": 73764,
  "hallituksen": 80983,
  "Île": 22832,
  "circuit": 24897,
  "##ხური": 74390,
  "teilweise": 23297,
  "база": 50509,
  "裹": 7119,
  "Futsal": 87583,
  "szovjet": 72870,
  "##ென்று": 89397,
  "miss": 88237,
  "befinner": 95643,
  "علماء": 80541,
  "##йского": 31889,
  "studerade": 63213,
  "##шнього": 46526,
  "##ικής": 35878,
  "kelompok": 36774,
  "domina": 90399,
  "##秉": 115717,
  "发": 2735,
  "##тия": 33221,
  "Օ": 661,
  "चिकुला": 51828,
  "free": 13961,
  "Leute": 92367,
  "Tarragona": 49073,
  "##пания": 74423,
  "##meno": 55762,
  "השאר": 82815,
  "돔": 9092,
  "##ידוע": 99970,
  "hearing": 51191,
  "Anwendung": 53671,
  "##ление": 20539,
  "##hée": 87551,
  "bilakaera": 32561,
  "colleagues": 75312,
  "amerických": 81960,
  "phố": 16851,
  "տարեկան": 50767,
  "##que": 11189,
  "המילה": 107890,
  "yanvar": 58825,
  "##лэг": 89937,
  "Stod": 83505,
  "##罗": 116166,
  "gól": 107982,
  "##ૉ": 111287,
  "употреба": 81558,
  "##naam": 55957,
  "##שיטה": 91745,
  "##ligt": 20150,
  "##ierenden": 88274,
  "rôles": 72704,
  "Steffen": 105873,
  "たちが": 78776,
  "##泽": 114725,
  "##鱔": 118433,
  "한편": 53519,
  "鱇": 8663,
  "##厕": 112477,
  "radar": 27112,
  "##ne": 10238,
  "Hauptstadt": 36631,
  "連": 7742,
  "筱": 6082,
  "listy": 42416,
  "najčešće": 57683,
  "klooster": 71569,
  "Frederick": 17132,
  "##riz": 43100,
  "concernant": 27992,
  "##繰": 116060,
  "australischen": 102930,
  "ریلوے": 52186,
  "Радио": 68212,
  "1451": 81720,
  "##ഛ": 111387,
  "långa": 90860,
  "scale": 19707,
  "##っと": 74736,
  "૫": 1134,
  "وجه": 83607,
  "mobile": 24662,
  "materiaal": 75542,
  "[unused7]": 7,
  "columna": 58458,
  "##שירות": 74829,
  "##塢": 112896,
  "Társaság": 97601,
  "Cadillac": 77672,
  "pwovens": 24403,
  "Greenwood": 16697,
  "克": 2433,
  "##ణం": 38595,
  "dirigido": 28716,
  "যার": 50793,
  "school": 11393,
  "##nende": 108513,
  "شدید": 100645,
  "##وعي": 101269,
  "Additional": 54484,
  "Olympische": 38730,
  "Deze": 14955,
  "赶": 7532,
  "Sinclair": 44515,
  "##非": 118098,
  "##頂": 118139,
  "داخل": 25454,
  "Turn": 36750,
  "Severní": 86712,
  "##משק": 110613,
  "Primera": 17810,
  "Flora": 20607,
  "##ฏ": 111416,
  "##ystal": 108197,
  "Herriko": 92009,
  "профессора": 59708,
  "##ьному": 107308,
  "nenhum": 68703,
  "만": 9248,
  "limits": 47418,
  "##олі": 71738,
  "布": 3601,
  "Campo": 22188,
  "##では": 24869,
  "medie": 74068,
  "##cules": 42436,
  "37": 11204,
  "Tiểu": 66905,
  "##гән": 19875,
  "##ಕ್ತಿ": 69790,
  "##tės": 50122,
  "##bę": 35446,
  "##цыяй": 107639,
  "erstreckt": 54846,
  "俞": 2313,
  "tocar": 42111,
  "吠": 2787,
  "Landschaft": 54184,
  "debutó": 61815,
  "##షనల్": 109256,
  "Abruzzo": 74238,
  "México": 13846,
  "desta": 25358,
  "##žek": 79970,
  "##tism": 106965,
  "է": 674,
  "passageiros": 107244,
  "##nove": 80521,
  "##累": 115968,
  "tantu": 56201,
  "propos": 50096,
  "##ūnas": 49539,
  "##cego": 37720,
  "[unused23]": 23,
  "fibre": 92557,
  "Adolph": 62747,
  "formação": 42561,
  "##ᵇ": 111534,
  "flights": 55650,
  "grupi": 87077,
  "##στικό": 39512,
  "unknown": 27306,
  "گؤتورولوبدور": 15157,
  "##šava": 44143,
  "ਜਿਵੇਂ": 92628,
  "##нім": 43323,
  "pò": 106509,
  "噗": 2967,
  "1372": 105504,
  "gatunki": 70628,
  "contes": 92621,
  "ауылында": 105974,
  "##emmat": 91472,
  "##哑": 112628,
  "##肚": 116272,
  "Mittel": 48736,
  "##front": 31044,
  "赛": 7519,
  "inspire": 95664,
  "记": 7308,
  "лига": 46588,
  "suelen": 56422,
  "Suriye": 110542,
  "Naval": 20469,
  "흩": 10022,
  "spaces": 54450,
  "Gwen": 72748,
  "plaques": 82370,
  "##िये": 103288,
  "כחלק": 64536,
  "борьбы": 55705,
  "stick": 84081,
  "Inspector": 53966,
  "اصول": 95260,
  "##俏": 112072,
  "##ensis": 22609,
  "##鲸": 118458,
  "үҙәге": 46620,
  "fé": 92415,
  "amic": 100779,
  "الشام": 90765,
  "رفع": 104106,
  "doen": 35342,
  "Димитър": 58744,
  "České": 26049,
  "##sole": 99131,
  "które": 15259,
  "##ams": 35224,
  "RIAA": 63918,
  "##czem": 78667,
  "贝": 7473,
  "##브": 52015,
  "##patto": 105303,
  "##водство": 98028,
  "받아": 70930,
  "撫": 4236,
  "##ਈ": 28704,
  "міст": 56752,
  "Opposition": 69053,
  "prosince": 33900,
  "##hda": 109788,
  "##ά": 17302,
  "ومع": 45518,
  "##袞": 116863,
  "Ekkehard": 90529,
  "Русија": 82863,
  "sydlige": 85909,
  "##meliaceae": 94737,
  "##holm": 35673,
  "resigned": 34784,
  "çoğu": 88836,
  "People": 14235,
  "##נא": 92030,
  "стандарт": 92826,
  "##تطوير": 94823,
  "##øse": 56950,
  "Hoffnung": 101792,
  "quant": 28784,
  "adat": 72295,
  "حدث": 93893,
  "##phone": 26232,
  "##냈": 118726,
  "nuôi": 51488,
  "##ochia": 90677,
  "Jakuba": 98448,
  "levando": 101562,
  "鄞": 7847,
  "Looking": 57451,
  "##roit": 80929,
  "баспасы": 44264,
  "мала": 34742,
  "فتح": 46854,
  "Nikita": 69729,
  "rắn": 98475,
  "rouge": 26997,
  "уште": 49654,
  "mamakan": 61129,
  "Abs": 56386,
  "##缪": 116152,
  "finally": 21256,
  "jierren": 64253,
  "##ldı": 30672,
  "mascles": 70452,
  "legati": 93904,
  "sive": 47012,
  "퀴": 9830,
  "Азии": 41928,
  "扣": 4014,
  "bajnokság": 62815,
  "hodie": 107472,
  "##úen": 103990,
  "##喜": 112687,
  "##льском": 88856,
  "##طرة": 99113,
  "هفت": 85450,
  "##ινε": 50379,
  "##どの": 97187,
  "Außerdem": 21467,
  "##čju": 77328,
  "##षित": 79559,
  "Königsberg": 51498,
  "села": 14596,
  "昂": 4362,
  "##янов": 106791,
  "##瓚": 115350,
  "##ински": 49530,
  "##took": 86995,
  "suele": 53472,
  "Иран": 65299,
  "##olo": 19139,
  "Esprit": 89506,
  "Greenwich": 46057,
  "match": 12356,
  "further": 14586,
  "lhe": 25459,
  "рет": 61900,
  "xưa": 109577,
  "##ướng": 67757,
  "mencionado": 77655,
  "зур": 104839,
  "##蛤": 116753,
  "Universal": 15481,
  "участокĕ": 70092,
  "forza": 29160,
  "патшалăх": 38663,
  "깐": 8941,
  "provincial": 24900,
  "##тке": 56014,
  "ano": 12797,
  "DDR": 19222,
  "讯": 7307,
  "##centes": 84913,
  "##dong": 61662,
  "Ying": 95904,
  "الرواية": 103083,
  "##eko": 18111,
  "##ഴി": 90865,
  "##疊": 115412,
  "წლამდე": 97864,
  "##諾": 117022,
  "energia": 19454,
  "mee": 25436,
  "кола": 79123,
  "putting": 71028,
  "seul": 20445,
  "eventos": 28719,
  "步": 4793,
  "місяців": 90069,
  "##naar": 69074,
  "##óse": 58515,
  "lernte": 66892,
  "judicial": 41809,
  "up": 10741,
  "Pitkin": 18751,
  "Amnesty": 76756,
  "##┓": 111723,
  "##헤": 119429,
  "漿": 5177,
  "HIV": 30855,
  "##諜": 117010,
  "##ठे": 80122,
  "niño": 50289,
  "otres": 37191,
  "Amalie": 106993,
  "продюсер": 59589,
  "##лежали": 107841,
  "21": 10296,
  "table": 21783,
  "memimpin": 96324,
  "బి": 32523,
  "##票": 115686,
  "Ursprünglich": 72843,
  "περιοχής": 73574,
  "C1": 51266,
  "##ministrateur": 103358,
  "मार्चं": 67525,
  "differences": 39336,
  "են": 11260,
  "##lila": 81523,
  "toukokuuta": 34908,
  "##onin": 76788,
  "##sca": 28849,
  "##糊": 115930,
  "tandis": 24997,
  "##rije": 53741,
  "थासय्": 15287,
  "##eraz": 87209,
  "髮": 8600,
  "сан": 43426,
  "##ează": 56620,
  "##镀": 117880,
  "##ire": 11627,
  "altar": 38412,
  "있": 9647,
  "ol": 30668,
  "##屎": 113258,
  "##ullit": 60219,
  "##önen": 57526,
  "verstärkt": 79063,
  "Counter": 85860,
  "documenti": 67775,
  "আবার": 106681,
  "##盏": 115504,
  "vatten": 73439,
  "słowa": 82879,
  "##ιος": 51607,
  "övrigt": 36775,
  "##zamiento": 82165,
  "הישראלי": 59787,
  "Ertl": 101260,
  "##πη": 79511,
  "##æder": 87688,
  "ထ": 1508,
  "armija": 102605,
  "忏": 3797,
  "Orden": 21647,
  "comunidade": 40701,
  "doctorat": 64622,
  "Daleithiau": 104104,
  "позволяет": 46418,
  "##aku": 87480,
  "##चित": 43540,
  "Пошта": 51791,
  "##ებზე": 80536,
  "Stare": 90878,
  "##극": 63243,
  "##nim": 13550,
  "##rodne": 106262,
  "המפלגה": 48883,
  "Stowarzyszenia": 110679,
  "##fase": 95407,
  "ăn": 23061,
  "##سو": 81719,
  "746": 76770,
  "рук": 84043,
  "Rodriguez": 41778,
  "increasingly": 45015,
  "Flor": 69113,
  "Passports": 74324,
  "犢": 5418,
  "##Κ": 48660,
  "Przez": 36253,
  "Iunii": 105374,
  "##cutivo": 54013,
  "##aha": 51427,
  "бу": 18261,
  "الخلايا": 73440,
  "Casanova": 69147,
  "##ения": 14762,
  "дейінгі": 41929,
  "مرض": 85829,
  "##ючись": 75046,
  "摘": 4215,
  "吏": 2776,
  "##md": 37527,
  "##yev": 24919,
  "659": 64057,
  "العمرية": 74206,
  "Heads": 90074,
  "##﴾": 119480,
  "##DO": 104847,
  "административно": 27720,
  "##ren": 10969,
  "##酎": 117627,
  "##liner": 103140,
  "annars": 85120,
  "實": 3431,
  "jim": 40879,
  "##nación": 48447,
  "##寶": 113206,
  "##bände": 65586,
  "pressió": 107151,
  "ể": 1665,
  "##عه": 44685,
  "##訛": 116944,
  "Sterling": 43914,
  "cambiar": 66798,
  "##mic": 27057,
  "##nés": 31597,
  "lu": 14657,
  "призер": 87018,
  "##tuje": 73968,
  "##казом": 78162,
  "collect": 80739,
  "ditubuhkan": 109492,
  "녔": 9020,
  "##mne": 43685,
  "##صناعية": 109705,
  "##סטון": 105195,
  "##خوان": 79963,
  "##geo": 103665,
  "福": 5933,
  "محصولات": 102429,
  "##sts": 28036,
  "##cian": 35288,
  "##тске": 70544,
  "##יכים": 84006,
  "آمدهاست": 104059,
  "##rskoj": 100417,
  "##綽": 116010,
  "vindt": 59200,
  "Landwirtschaft": 45945,
  "##ània": 58752,
  "474": 46989,
  "##লক": 104184,
  "forces": 13729,
  "kon": 18840,
  "realizzata": 62677,
  "Jedna": 67016,
  "lortu": 51797,
  "Hirsch": 76403,
  "##lug": 67381,
  "##ованих": 85475,
  "manufacturing": 43615,
  "仄": 2183,
  "##mě": 54153,
  "певец": 103496,
  "incident": 28005,
  "##೬": 67758,
  "studii": 108151,
  "Vabariigi": 96460,
  "układ": 90217,
  "##дника": 88109,
  "##ほぼ": 55846,
  "khá": 57205,
  "молодой": 96917,
  "населені": 71589,
  "generalnej": 107232,
  "Журнал": 60066,
  "regjeringen": 95413,
  "Já": 48625,
  "枢": 4526,
  "score": 17704,
  "קיימת": 82585,
  "familiares": 56224,
  "WBA": 93772,
  "##llu": 98042,
  "##vial": 95570,
  "嵊": 3558,
  "rod": 32952,
  "13": 10249,
  "kertaa": 38024,
  "lawyer": 38055,
  "剪": 2580,
  "##kovic": 80743,
  "poids": 47056,
  "sessions": 45320,
  "Williams": 12494,
  "loco": 91914,
  "트": 9890,
  "##gio": 15854,
  "##्रम": 53606,
  "##elu": 43560,
  "ভারত": 74313,
  "##াকা": 81661,
  "##dyny": 99975,
  "##ఆ": 111317,
  "蠱": 7063,
  "##niczy": 86047,
  "1733": 37926,
  "nomi": 39661,
  "wśród": 25207,
  "elsewhere": 60249,
  "##부는": 58904,
  "mars": 11438,
  "Mei": 18087,
  "##吾": 112570,
  "۲۰۰۹": 66409,
  "##իչ": 59419,
  "##რებული": 43438,
  "Psychotria": 94313,
  "государственной": 34531,
  "##йым": 98222,
  "presents": 41175,
  "Rue": 33553,
  "##رجع": 77198,
  "الصحية": 106487,
  "hun": 12041,
  "Dartmouth": 104981,
  "##ęp": 91496,
  "##कीय": 51246,
  "Vereniging": 99018,
  "Warszawie": 22182,
  "##тапа": 75021,
  "##ால்": 24517,
  "LSD": 90215,
  "##ொ": 111313,
  "##нца": 23716,
  "##שמר": 109440,
  "housed": 57128,
  "##čice": 70313,
  "atua": 87605,
  "południe": 63613,
  "Hügel": 90628,
  "##kej": 23510,
  "तथ्य": 65592,
  "csatlakozott": 101724,
  "devlet": 56455,
  "Ը": 632,
  "질": 9709,
  "##ийг": 35995,
  "Membracoidea": 84900,
  "##епублици": 106907,
  "1570": 36768,
  "виступав": 60974,
  "##غا": 81959,
  "σεζόν": 78620,
  "bekend": 15401,
  "जिससे": 80558,
  "Padre": 34958,
  "##φος": 43869,
  "##mung": 49026,
  "bond": 55185,
  "feita": 46579,
  "##قط": 75146,
  "1226": 93064,
  "##ség": 15538,
  "##幕": 113400,
  "йоцу": 80627,
  "##ੰ": 111265,
  "##lva": 31600,
  "Marino": 29719,
  "##issió": 67954,
  "neveu": 99240,
  "produce": 17368,
  "fortsatte": 32723,
  "Violet": 74301,
  "##trem": 87601,
  "ganska": 13402,
  "väga": 44414,
  "lema": 93661,
  "Jag": 86065,
  "##ип": 30637,
  "xénero": 87738,
  "URSS": 29986,
  "##kanischen": 98052,
  "հարթությունները": 100747,
  "DC": 14447,
  "##ૅ": 111285,
  "gleich": 41698,
  "Euro": 17526,
  "##ארד": 51886,
  "##ologii": 58524,
  "Zacatecas": 105799,
  "##拌": 113828,
  "gọi": 17430,
  "nii": 28576,
  "decreto": 33562,
  "Francuskoj": 56343,
  "##ورت": 59219,
  "##izzare": 102062,
  "##ového": 31186,
  "இது": 17369,
  "allows": 26466,
  "##ովորել": 92649,
  "##סינגל": 86320,
  "##íl": 39819,
  "默": 8805,
  "outros": 14471,
  "##ич": 18669,
  "fila": 86644,
  "##帯": 113387,
  "dni": 29209,
  "kamper": 70622,
  "##licht": 47498,
  "##redni": 100136,
  "##вскан": 97381,
  "喵": 2931,
  "بالای": 95824,
  "##اهر": 69461,
  "峽": 3543,
  "##ांक": 102030,
  "##⊙": 111710,
  "##灞": 115020,
  "оригінальному": 89795,
  "భూమి": 14106,
  "árið": 22891,
  "##ственности": 67106,
  "diente": 28004,
  "##कारी": 87291,
  "istifadə": 27639,
  "banks": 41375,
  "gagné": 108360,
  "##عادة": 45103,
  "లైన్": 38918,
  "辆": 7656,
  "edificis": 84991,
  "Německu": 93255,
  "##荷": 116527,
  "膏": 6593,
  "##鹸": 118540,
  "##畦": 115397,
  "Παρίσι": 108842,
  "পড়ে": 99770,
  "##omy": 98877,
  "##gation": 61005,
  "Syed": 95858,
  "##澗": 114970,
  "ederek": 96849,
  "ministru": 53882,
  "vite": 34903,
  "divisa": 59821,
  "鷲": 8740,
  "Artigo": 72830,
  "naglibot": 85612,
  "από": 10720,
  "varv": 97481,
  "された": 10952,
  "##beau": 77023,
  "entwickelten": 88381,
  "administracinio": 60612,
  "yaşadığı": 106713,
  "##gam": 47233,
  "##lap": 47263,
  "toen": 19000,
  "pasi": 83736,
  "universo": 40614,
  "duy": 38779,
  "##ION": 52980,
  "აგვისტო": 100554,
  "२३": 91954,
  "##reg": 68868,
  "##lhouse": 109423,
  "##じ": 58268,
  "##осиф": 70543,
  "ھ": 827,
  "##use": 12730,
  "##īti": 79307,
  "rivela": 68043,
  "##mom": 86366,
  "柵": 4554,
  "##wain": 51233,
  "##ilu": 63338,
  "때": 9137,
  "bermain": 26246,
  "destroyer": 87038,
  "##ień": 56662,
  "烙": 5296,
  "εν": 58317,
  "північ": 44136,
  "瑋": 5541,
  "abandoned": 32296,
  "budući": 102404,
  "烂": 5291,
  "dones": 16609,
  "##ogen": 32038,
  "atë": 45394,
  "これにより": 76447,
  "##ntamiento": 86639,
  "撑": 4228,
  "יותר": 14371,
  "##tyczny": 77462,
  "##ἄ": 111592,
  "Während": 16194,
  "Краткий": 45062,
  "stylu": 35570,
  "鍍": 7991,
  "тоҷик": 78813,
  "mye": 38424,
  "pasado": 38070,
  "##вляет": 69446,
  "వలన": 60201,
  "arcidiocesi": 104355,
  "##灿": 115033,
  "appartiene": 110469,
  "##chera": 107759,
  "pendek": 32444,
  "Wikipédia": 24460,
  "Dresdner": 85625,
  "##בוש": 104191,
  "릉": 9236,
  "##وسی": 66255,
  "##пасы": 79538,
  "鄢": 7848,
  "None": 86481,
  "羟": 6421,
  "限": 8215,
  "##蝌": 116787,
  "##馀": 118266,
  "२५": 76715,
  "属": 3496,
  "Деякі": 83946,
  "Berna": 89971,
  "ساحل": 87616,
  "període": 35500,
  "يلعب": 40111,
  "##рске": 71878,
  "##dama": 78529,
  "Orthoptera": 16238,
  "##名": 112540,
  "staden": 29328,
  "##ılır": 49928,
  "виды": 67367,
  "Superiore": 107911,
  "restrictions": 67028,
  "偶": 2369,
  "psychology": 59669,
  "##俑": 112074,
  "jeszcze": 28684,
  "Ժ": 634,
  "##ניקה": 110688,
  "liitettiin": 106797,
  "хор": 91690,
  "##بان": 36467,
  "826": 71632,
  "wichtigen": 75438,
  "##mbi": 59208,
  "sumala": 16022,
  "שעות": 83518,
  "##enu": 55484,
  "Hafen": 61205,
  "anglicky": 68976,
  "##殻": 114592,
  "##талія": 78389,
  "##lė": 34104,
  "852": 70072,
  "warga": 49006,
  "hung": 68971,
  "sırada": 52117,
  "الجسم": 70007,
  "##종": 22200,
  "الطائرة": 102024,
  "recevoir": 87920,
  "##unte": 95489,
  "##tva": 22750,
  "##iy": 25729,
  "##чинається": 91049,
  "Painting": 85967,
  "##matan": 52955,
  "johon": 53362,
  "fusta": 61378,
  "leave": 21964,
  "##arie": 92736,
  "Borgo": 74852,
  "unul": 35996,
  "##сечна": 99716,
  "రైల్వే": 32566,
  "##nser": 60096,
  "astăzi": 85502,
  "##仰": 111974,
  "예를": 85379,
  "miesten": 104880,
  "duhet": 76806,
  "措": 4165,
  "##જા": 57916,
  "##dü": 31623,
  "expressed": 31685,
  "##علاقة": 108141,
  "einschließlich": 57392,
  "מיליון": 38082,
  "2011": 10158,
  "##nın": 13153,
  "силно": 80837,
  "ermita": 62726,
  "1021": 30538,
  "periode": 17715,
  "фіналу": 107523,
  "##裁": 116868,
  "##밝": 118966,
  "##بار": 26764,
  "##tese": 63760,
  "ྫ": 1490,
  "##cijas": 31037,
  "من": 10289,
  "न": 884,
  "##aže": 85402,
  "الجامعة": 59992,
  "##vatsku": 84794,
  "wyłącznie": 64801,
  "[unused83]": 83,
  "##нє": 43035,
  "ऊ": 856,
  "نمونه": 85719,
  "వినియోగం": 38678,
  "Mil": 75311,
  "##campeón": 91234,
  "##تين": 34707,
  "currency": 83759,
  "##tehen": 88650,
  "keys": 65030,
  "Muse": 66149,
  "ഇതിൽ": 86735,
  "##ள்ள": 47708,
  "##logischen": 57325,
  "участвовал": 30182,
  "optreden": 80774,
  "##орма": 88021,
  "केन्द्रित": 60920,
  "вопросам": 67177,
  "##rators": 94721,
  "ha": 10228,
  "##metri": 60597,
  "##萘": 116579,
  "##עביר": 71887,
  "устройства": 56133,
  "zeggen": 82538,
  "##ch": 10269,
  "##ردو": 84139,
  "##אן": 19816,
  "faisant": 29901,
  "훗": 10007,
  "Eo": 26172,
  "works": 14009,
  "avenir": 87302,
  "##狼": 115207,
  "Nieto": 110807,
  "##рой": 62685,
  "164": 21575,
  "grupu": 29214,
  "##ST": 32995,
  "poleg": 88238,
  "scena": 28640,
  "##ále": 44223,
  "شرح": 43350,
  "helping": 45752,
  "نائب": 91573,
  "1095": 84735,
  "жилийн": 93347,
  "ఒకటి": 26858,
  "##汁": 114640,
  "ай": 101731,
  "049": 106353,
  "của": 10447,
  "boken": 60285,
  "##гт": 37876,
  "Kaufman": 80143,
  "vàng": 41681,
  "sogar": 28752,
  "improvement": 70010,
  "##পতি": 76939,
  "##vro": 99959,
  "lesz": 52764,
  "##ьне": 75650,
  "dúo": 102175,
  "##kset": 42214,
  "έγιναν": 85689,
  "Avril": 88261,
  "Mann": 15898,
  "##дів": 46996,
  "labor": 27605,
  "Rothschild": 41440,
  "einige": 16704,
  "людям": 98035,
  "##ах": 12588,
  "имела": 64692,
  "##啞": 112663,
  "industri": 37332,
  "혁": 9977,
  "##τικούς": 66785,
  "##ána": 27769,
  "##ows": 72945,
  "әлеуметтік": 86496,
  "##uste": 42043,
  "Teater": 55091,
  "##ировал": 57542,
  "1056": 108416,
  "ایسے": 71386,
  "##кс": 18705,
  "菫": 6799,
  "##anga": 67665,
  "##ранка": 95772,
  "茧": 6732,
  "ض": 778,
  "Pavilion": 100778,
  "Vieira": 68169,
  "vécu": 92416,
  "##Ո": 111126,
  "Moldova": 29733,
  "dass": 11064,
  "soil": 41080,
  "##ados": 13504,
  "կյանքի": 82864,
  "##淼": 114826,
  "##茉": 116493,
  "Lödanadensit": 28035,
  "##mão": 92390,
  "##하다": 32679,
  "anhand": 75830,
  "ἀ": 1698,
  "bestehen": 37362,
  "##聴": 116256,
  "insgesamt": 20072,
  "номеры": 66954,
  "##tian": 37594,
  "timbre": 93820,
  "##ׂ": 111161,
  "перейшов": 66278,
  "ერთად": 41857,
  "೬": 1315,
  "##čí": 19012,
  "extensión": 45847,
  "Această": 67226,
  "pasangan": 77947,
  "##čník": 56266,
  "gampong": 110562,
  "Town": 14380,
  "কাজ": 43466,
  "쁘": 9402,
  "Đà": 95699,
  "կին": 59854,
  "ապա": 58745,
  "хозяйство": 91476,
  "artiste": 35033,
  "##ற்று": 39383,
  "##جرة": 40097,
  "屆": 3487,
  "kirken": 55722,
  "##ცია": 24527,
  "##سكر": 70468,
  "714": 56848,
  "##塚": 112894,
  "Collegiate": 91163,
  "project": 13920,
  "dj": 71150,
  "##irn": 88725,
  "successo": 20218,
  "棕": 4630,
  "##၈": 36145,
  "περιοχές": 59701,
  "מיד": 92764,
  "##male": 47144,
  "Japón": 29874,
  "herhangi": 81695,
  "##租": 115723,
  "Cortés": 59593,
  "Энэ": 46719,
  "ساییمی": 20981,
  "występują": 60547,
  "effort": 24912,
  "occurred": 25738,
  "Sveti": 71941,
  "locomotive": 48912,
  "Finalement": 91612,
  "Syracuse": 55198,
  "##dność": 83075,
  "##lerdir": 68251,
  "##mistä": 75512,
  "臥": 6618,
  "15일에": 109355,
  "ній": 90948,
  "Ses": 23387,
  "வகை": 104983,
  "bureau": 32340,
  "##唁": 112641,
  "##دير": 90228,
  "##izzò": 90305,
  "##皆": 115485,
  "பார்த்த": 12869,
  "повернення": 107217,
  "धर्मया": 29635,
  "##ынған": 109779,
  "bardziej": 39733,
  "##ulla": 63486,
  "Ole": 31482,
  "##幺": 113412,
  "##ckých": 33707,
  "오": 9580,
  "είχε": 16486,
  "՜": 665,
  "##势": 112378,
  "Meister": 20813,
  "ridder": 110529,
  "místo": 24001,
  "##вајќи": 95210,
  "Animalia": 12406,
  "about": 10978,
  "##kana": 58972,
  "緊": 6247,
  "sub": 13987,
  "అదే": 106760,
  "##தும்": 106824,
  "겼": 8884,
  "##vert": 30013,
  "ứng": 26683,
  "цара": 83263,
  "guilty": 56044,
  "možno": 58087,
  "Uppsala": 29912,
  "##aste": 25096,
  "favour": 61264,
  "##סת": 48311,
  "singoli": 65938,
  "##daj": 72534,
  "останні": 101486,
  "##ülmüşdür": 104721,
  "білка": 72751,
  "##ief": 25962,
  "Fame": 18033,
  "ばれた": 47258,
  "suurin": 42042,
  "##бата": 44353,
  "grudniu": 61306,
  "1200": 17234,
  "coral": 63976,
  "zostać": 76073,
  "殘": 4816,
  "который": 12968,
  "Speech": 78033,
  "fizik": 85636,
  "Jerzego": 76665,
  "##сте": 31918,
  "discográfica": 98772,
  "Communist": 33065,
  "巾": 3598,
  "##ังนี้": 86989,
  "violent": 43934,
  "أربع": 97851,
  "га": 16616,
  "##падает": 61015,
  "cầm": 74677,
  "הביטחון": 73735,
  "Jaime": 30454,
  "##ейн": 46574,
  "##shme": 37162,
  "##லி": 37886,
  "cənub": 83649,
  "использовались": 97083,
  "escoles": 109363,
  "##dicat": 45375,
  "éducation": 43484,
  "##מים": 14466,
  "muro": 55510,
  "Col": 24927,
  "##bado": 51606,
  "Vela": 110261,
  "##葡": 116595,
  "окръг": 70671,
  "Jeremy": 27087,
  "đai": 51410,
  "##itetu": 73315,
  "electrical": 50323,
  "Tucumán": 89452,
  "bivši": 77048,
  "텔": 9869,
  "խաղում": 55359,
  "xarxa": 87327,
  "businesses": 37766,
  "##аву": 78231,
  "први": 29512,
  "##렇": 118871,
  "##bol": 22729,
  "##šen": 31872,
  "riqueza": 65717,
  "##czenie": 29371,
  "eigendom": 92669,
  "對": 3457,
  "centrale": 16524,
  "Ellis": 27899,
  "##治": 114696,
  "##釘": 117679,
  "వరి": 49195,
  "Motown": 90835,
  "effetto": 55338,
  "##յի": 34616,
  "усе": 105160,
  "české": 46726,
  "盼": 5761,
  "##bed": 33627,
  "015": 75737,
  "прибыл": 88131,
  "##атты": 98367,
  "plats": 28763,
  "Merr": 105713,
  "ல": 1167,
  "נוסף": 35786,
  "Meksiko": 17424,
  "Benny": 37960,
  "赌": 7511,
  "Secret": 19497,
  "##gą": 69444,
  "##竄": 115795,
  "##āra": 81718,
  "##搁": 113961,
  "181": 22534,
  "##грала": 106682,
  "##汛": 114650,
  "##versario": 97804,
  "명의": 82875,
  "##irect": 102691,
  "Eingang": 82133,
  "##ниях": 104985,
  "##nę": 31223,
  "##èle": 39867,
  "Huber": 46398,
  "мастер": 59964,
  "ofiziala": 52519,
  "Between": 22036,
  "continental": 33217,
  "##üs": 54577,
  "##cích": 23065,
  "Amigos": 91225,
  "梢": 4613,
  "түсті": 78299,
  "##bilidad": 37530,
  "chuẩn": 39281,
  "##ocht": 65977,
  "Ching": 63924,
  "##円": 112235,
  "せ": 1927,
  "Johnston": 31844,
  "nội": 35498,
  "ਲੋਕਾਂ": 99747,
  "Marso": 42284,
  "##lompok": 76691,
  "haline": 81996,
  "другої": 100181,
  "##्रिय": 108428,
  "área": 13487,
  "##naniu": 107480,
  "##吋": 112538,
  "##ரசின்": 86748,
  "بناء": 46955,
  "##색": 41442,
  "помер": 53859,
  "##钛": 117812,
  "##Ư": 110981,
  "筝": 6079,
  "Cara": 52143,
  "Hugues": 67689,
  "##ուսի": 110841,
  "##ladu": 71814,
  "##渊": 114831,
  "##ઘ": 111279,
  "##yini": 100241,
  "##fon": 32014,
  "eskubideen": 67662,
  "२६": 94114,
  "Unito": 44533,
  "wêreld": 98492,
  "Ð": 240,
  "Bischof": 26754,
  "##떤": 118835,
  "##লে": 28799,
  "##隍": 118009,
  "มกราคม": 45312,
  "##ији": 31848,
  "##炬": 115045,
  "Rooney": 81626,
  "##чальник": 87459,
  "##аро": 95605,
  "##၊": 111507,
  "##ரும்": 37635,
  "Admiral": 30973,
  "##厦": 112484,
  "##竣": 115807,
  "##ვები": 60959,
  "##чныя": 51852,
  "狱": 5438,
  "唱": 2886,
  "##ськ": 44630,
  "##ఏ": 111324,
  "##CO": 82272,
  "##్రం": 63437,
  "Nestor": 78424,
  "kilala": 108592,
  "ਹੋਏ": 73218,
  "Kauden": 101951,
  "composta": 25916,
  "marcha": 39461,
  "ролі": 59944,
  "TSR": 41752,
  "##bangsa": 62536,
  "Крис": 93275,
  "##يات": 14964,
  "##رام": 42519,
  "Balázs": 103986,
  "##üde": 93916,
  "zakona": 110325,
  "##מילים": 99606,
  "叠": 2743,
  "##שנה": 106339,
  "nhau": 20875,
  "##азу": 85443,
  "nordwestlich": 64675,
  "##வே": 43096,
  "##اتب": 90125,
  "##іва": 60795,
  "Олар": 88408,
  "##kad": 42185,
  "##ника": 14071,
  "crops": 69422,
  "Feng": 80147,
  "襖": 7133,
  "##ると": 100812,
  "роки": 20835,
  "першій": 105379,
  "olduğunu": 25921,
  "##mimo": 55221,
  "##neur": 38780,
  "##øder": 67960,
  "珀": 5493,
  "Toinen": 92285,
  "##kau": 62119,
  "completa": 25472,
  "##貝": 117181,
  "technisch": 102151,
  "##شن": 25995,
  "##ð": 12332,
  "edá": 71299,
  "carbone": 82855,
  "Chambre": 46443,
  "sengem": 90555,
  "##renz": 59841,
  "Imagine": 102545,
  "olunub": 90438,
  "ensure": 40781,
  "eastern": 18677,
  "devenant": 93773,
  "néixer": 55661,
  "tyske": 21917,
  "##ìí": 94436,
  "essersi": 87060,
  "##ਚਨਾ": 103359,
  "##穷": 115770,
  "заслуженный": 93405,
  "腔": 6577,
  "##rro": 38692,
  "2020": 23607,
  "ponad": 26364,
  "Daisy": 55098,
  "rodzaj": 49380,
  "gara": 24457,
  "ska": 31569,
  "různých": 46710,
  "##roje": 71723,
  "italijanski": 96373,
  "starkt": 104969,
  "dispose": 37386,
  "튜": 9887,
  "##orden": 34957,
  "퓨": 9941,
  "歌": 4784,
  "großen": 17318,
  "##غة": 59446,
  "1415": 59265,
  "##ャ": 69395,
  "Libre": 46116,
  "##ix": 13274,
  "unu": 27786,
  "価": 2289,
  "##ച്ച": 34500,
  "##姨": 113046,
  "##nded": 53556,
  "census": 14670,
  "кандидат": 52761,
  "##ולה": 47816,
  "##részt": 61128,
  "Ezután": 71907,
  "##чини": 32615,
  "županije": 86762,
  "##лац": 58858,
  "##iwal": 99390,
  "##赦": 117291,
  "कभी": 50058,
  "탔": 9852,
  "πλέον": 60315,
  "##ремі": 102277,
  "ϊ": 490,
  "zoals": 16712,
  "زنجان": 83219,
  "##ότητας": 109146,
  "##folge": 65392,
  "była": 15060,
  "prevalentemente": 71661,
  "الكنيسة": 66491,
  "उर्दू": 94895,
  "##udeksi": 53487,
  "studiosi": 87744,
  "Albatros": 104374,
  "Patterson": 49207,
  "filum": 12447,
  "manos": 33112,
  "Winters": 99477,
  "##lannen": 86242,
  "屑": 3494,
  "pòt": 74733,
  "রাজ্যর": 31011,
  "##테": 119351,
  "蹈": 7576,
  "άλλο": 84614,
  "remporté": 46964,
  "lugares": 26659,
  "##ակից": 66181,
  "##ênes": 101198,
  "##eton": 102709,
  "jeu": 17334,
  "شرقی": 37783,
  "##rb": 50579,
  "Alben": 57591,
  "##엄": 96090,
  "##պես": 33935,
  "þeim": 61584,
  "שב": 98531,
  "האימפריה": 47457,
  "##ेको": 91601,
  "##леген": 96927,
  "Насельніцтва": 78092,
  "attended": 17696,
  "rusky": 110174,
  "terdapat": 21343,
  "Plymouth": 40814,
  "##оли": 42634,
  "удостоен": 66746,
  "Человек": 85853,
  "##rgão": 109942,
  "##ділу": 108822,
  "##ύρος": 109489,
  "ekstra": 91041,
  "##вни": 42812,
  "Dmitri": 59429,
  "##osz": 60372,
  "##щини": 33698,
  "khắc": 82401,
  "Hiến": 102852,
  "всему": 82184,
  "Ei": 35278,
  "konci": 38320,
  "mikor": 84663,
  "##zijde": 44305,
  "učilišta": 74106,
  "##먼": 118922,
  "##ছিলেন": 61216,
  "Pahang": 82674,
  "##zda": 33642,
  "##히": 18108,
  "##ദി": 85863,
  "##싫": 119084,
  "կոդը": 52777,
  "##مكن": 67108,
  "##nského": 80486,
  "면적은": 97920,
  "Sugar": 37415,
  "##реждений": 96750,
  "Orient": 26743,
  "##ивы": 110409,
  "##mach": 68388,
  "Ненец": 40688,
  "技": 4030,
  "##膏": 116359,
  "آتش": 92950,
  "Минскца": 31452,
  "עברה": 70499,
  "##zca": 73707,
  "SDSS": 34612,
  "##僮": 112168,
  "##нних": 53042,
  "Манас": 65504,
  "pertany": 94287,
  "##ïc": 108963,
  "опсерваторија": 106038,
  "##ajan": 89730,
  "888": 67921,
  "batalla": 18810,
  "posizione": 22594,
  "##кам": 31071,
  "Indo": 31499,
  "havien": 31909,
  "##Ś": 110965,
  "citizens": 29812,
  "சேர்ந்தது": 63014,
  "##սի": 22932,
  "highest": 18134,
  "Artillerie": 88896,
  "##吟": 112552,
  "movies": 39129,
  "Darul": 70126,
  "##richter": 59410,
  "牒": 5398,
  "##iskt": 59271,
  "namely": 66093,
  "Sofía": 82959,
  "गेले": 97622,
  "##ceum": 67612,
  "Іван": 35880,
  "##ланған": 76825,
  "Mohamed": 31790,
  "##̄": 111018,
  "חלקים": 100414,
  "劈": 2590,
  "##it": 10486,
  "उपयोग": 38076,
  "copies": 26102,
  "प्रभावित": 104927,
  "##ੰਦੀ": 82578,
  "administrazio": 51093,
  "苾": 6722,
  "##낫": 118717,
  "##oce": 45596,
  "cadena": 33641,
  "##ädagogik": 102386,
  "##凄": 112268,
  "Nobel": 16280,
  "##毓": 114604,
  "Castiella": 60123,
  "##bl": 31766,
  "##طن": 46318,
  "世": 2087,
  "##兑": 112204,
  "##إيطالية": 85585,
  "##ular": 18062,
  "##נ": 44458,
  "zehatzak": 32891,
  "##灌": 115015,
  "Maydoni": 16629,
  "７": 10075,
  "několik": 27760,
  "##وات": 34414,
  "dita": 68220,
  "Stadtteil": 33855,
  "##婺": 113085,
  "崛": 3552,
  "##шку": 63048,
  "marcar": 75125,
  "##үл": 55286,
  "##tré": 51014,
  "##μένη": 29768,
  "Suns": 95174,
  "hijo": 18611,
  "régulièrement": 48150,
  "Doo": 59048,
  "PV": 77621,
  "dirigent": 40274,
  "genyen": 26844,
  "основа": 53277,
  "felesége": 63410,
  "Cure": 55851,
  "##chuk": 78308,
  "##pira": 51198,
  "szybko": 71971,
  "##ömer": 101020,
  "##濕": 114985,
  "و": 791,
  "##昀": 114127,
  "##饺": 118263,
  "Niederlage": 46584,
  "##jének": 86346,
  "estiu": 59920,
  "##inos": 31643,
  "закона": 56608,
  "ranges": 74397,
  "1236": 96903,
  "regiments": 99562,
  "дає": 94019,
  "##Ë": 110912,
  "Spirit": 24501,
  "الطبعة": 84312,
  "##arty": 72737,
  "##ظهر": 57761,
  "##ης": 22315,
  "menos": 14298,
  "retiring": 75933,
  "สิงหาคม": 44828,
  "Taiti": 66412,
  "##lib": 36125,
  "PCI": 69280,
  "independent": 16584,
  "Salem": 39392,
  "argumento": 82310,
  "##掠": 113923,
  "שונות": 35030,
  "2600": 59916,
  "##lili": 67913,
  "Dynasty": 46213,
  "alunos": 86406,
  "##kota": 46472,
  "战": 3979,
  "##직": 33077,
  "##bst": 60622,
  "Красный": 72370,
  "되었다": 17737,
  "Henry": 11601,
  "graduate": 32893,
  "зданий": 87460,
  "になっている": 44594,
  "Movies": 46376,
  "두고": 84295,
  "##довы": 108107,
  "##t": 10123,
  "暐": 4421,
  "252": 21581,
  "bảo": 22916,
  "offiziell": 42316,
  "唸": 2887,
  "30일": 40636,
  "mando": 31884,
  "Yankees": 60799,
  "##蠡": 116826,
  "dess": 22477,
  "Ένωση": 102569,
  "[unused35]": 35,
  "ナ": 2025,
  "佟": 2261,
  "##తోంది": 68450,
  "dotter": 56032,
  "britànic": 94609,
  "butterfly": 102194,
  "Asilidae": 35579,
  "##пции": 84833,
  "enemigos": 66926,
  "##kládá": 107503,
  "Leafs": 102701,
  "##肝": 116274,
  "Geschlecht": 103312,
  "採": 4158,
  "Afrika": 13171,
  "##лĕ": 45745,
  "독일": 51175,
  "zápas": 99030,
  "ঘরর": 49052,
  "##har": 18387,
  "##დ": 14975,
  "manifestation": 99140,
  "لما": 72875,
  "буд": 50077,
  "##驸": 118326,
  "näitleja": 67889,
  "##卫": 112459,
  "Wort": 35330,
  "respecto": 30989,
  "jin": 75863,
  "Leipziger": 79646,
  "##ירים": 54389,
  "##ғат": 109384,
  "##헐": 119427,
  "склад": 18688,
  "##oel": 58802,
  "繚": 6287,
  "##чные": 26176,
  "Richards": 29110,
  "kluba": 46782,
  "participación": 28006,
  "##вете": 86982,
  "##泛": 114709,
  "##顷": 118182,
  "##városi": 66235,
  "##wati": 66790,
  "январе": 39790,
  "bungo": 64725,
  "##hoek": 71495,
  "salva": 86521,
  "氨": 4862,
  "العلاقات": 91544,
  "##dete": 77533,
  "Knows": 105582,
  "1904": 11939,
  "##鬃": 118370,
  "noted": 18575,
  "##цима": 43351,
  "attaché": 83747,
  "##幇": 113397,
  "援": 4191,
  "##laufen": 67972,
  "##ική": 19499,
  "Jie": 88685,
  "##raaf": 71647,
  "端": 6045,
  "grand": 13023,
  "ადმინისტრაციული": 81496,
  "required": 17468,
  "##ённым": 86035,
  "శాల": 56136,
  "驤": 8548,
  "काफी": 80112,
  "pracy": 27648,
  "verteilt": 91020,
  "berbanding": 100304,
  "军": 2482,
  "mistrzostwach": 34511,
  "nous": 18354,
  "##polita": 65868,
  "##gajar": 96225,
  "libros": 29450,
  "Помимо": 56453,
  "753": 69128,
  "Флорида": 100833,
  "繁": 6279,
  "##ನಲ್ಲಿ": 36412,
  "##ಿಯನ್": 88924,
  "özellikle": 53672,
  "##posing": 66735,
  "豚": 7404,
  "##azzo": 72474,
  "##ждат": 101862,
  "territori": 25320,
  "炙": 5276,
  "鲑": 8683,
  "##rero": 46775,
  "##缅": 116135,
  "hafta": 102768,
  "heutigen": 21723,
  "##оном": 49569,
  "Legend": 25268,
  "Dauer": 99559,
  "##chend": 53841,
  "##tein": 20248,
  "苣": 6710,
  "текст": 39734,
  "##裴": 116883,
  "##льный": 23323,
  "##вори": 52583,
  "Arias": 62790,
  "nouvelle": 15412,
  "##蜚": 116774,
  "Njemačke": 61671,
  "aktiboetatik": 33776,
  "arcos": 75943,
  "Overfamilien": 90783,
  "605": 48141,
  "##gast": 108209,
  "Weser": 86726,
  "vendar": 37731,
  "##從": 113544,
  "reden": 55492,
  "biens": 54884,
  "Manuel": 13108,
  "Dil": 95649,
  "fairly": 76281,
  "1211": 104621,
  "produksi": 55940,
  "regnum": 79243,
  "nauczyciel": 100375,
  "##γωνίστηκε": 100804,
  "메": 9272,
  "##ഫ്": 58540,
  "##vd": 54685,
  "brun": 65352,
  "##анија": 51042,
  "negra": 38455,
  "walk": 33734,
  "Trennung": 90392,
  "kalbos": 56973,
  "Alpen": 53981,
  "##١": 111175,
  "##িকা": 84402,
  "##card": 33414,
  "##禍": 115697,
  "##晦": 114170,
  "времето": 37216,
  "##ülen": 69497,
  "الصين": 71923,
  "internationales": 30411,
  "przeciwko": 39371,
  "Ал": 26657,
  "##ίκες": 69912,
  "broadcasts": 72129,
  "giác": 72810,
  "Административно": 104275,
  "##keleti": 95479,
  "ė": 305,
  "##nast": 73605,
  "colores": 47661,
  "portant": 29009,
  "##ato": 12720,
  "##ثير": 47765,
  "Tiranë": 70065,
  "##taba": 60412,
  "##濂": 114981,
  "mida": 24760,
  "Orange": 20557,
  "##רו": 24201,
  "quyết": 27016,
  "római": 36271,
  "NP": 64804,
  "Чемпіон": 75320,
  "Nièvre": 105845,
  "##maks": 96886,
  "##综": 116131,
  "##rt": 10976,
  "##コーナー": 104208,
  "miejsca": 39777,
  "##odu": 27752,
  "poziom": 109687,
  "job": 23627,
  "tạp": 62861,
  "Ele": 16561,
  "##leo": 83822,
  "##лыг": 72019,
  "闕": 8157,
  "##ած": 24133,
  "10⁶": 58024,
  "últim": 63810,
  "ৈ": 988,
  "##ంచి": 29039,
  "##kedett": 101410,
  "pression": 48095,
  "tsjerke": 59100,
  "средства": 34848,
  "Mesopotamia": 76151,
  "渔": 5071,
  "Leste": 64640,
  "##pen": 12708,
  "Lakosainak": 34662,
  "##atı": 64092,
  "информация": 55407,
  "邓": 7796,
  "autoroute": 80656,
  "##full": 102045,
  "Northern": 15352,
  "##vni": 28360,
  "##ете": 34623,
  "때문에": 20729,
  "搁": 4195,
  "contrôle": 29746,
  "##reia": 56865,
  "چار": 93325,
  "##akov": 106573,
  "##杼": 114276,
  "https": 14120,
  "##gus": 17496,
  "elas": 34338,
  "Staden": 81569,
  "استرالیا": 94105,
  "##ft": 12961,
  "Gebaseer": 108223,
  "##cznym": 28404,
  "寐": 3420,
  "sebou": 97276,
  "Kongress": 55656,
  "halve": 51646,
  "##יג": 46598,
  "míg": 32936,
  "Njegov": 56678,
  "आवश्यक": 73012,
  "##شعة": 81142,
  "yfir": 47398,
  "##lins": 68541,
  "##냄": 118725,
  "Namo": 43879,
  "grega": 65482,
  "##ინ": 73701,
  "nécessaires": 81446,
  "##ೀ": 35461,
  "wyd": 59685,
  "##ములు": 67745,
  "intae": 91373,
  "Rudolf": 16204,
  "numerous": 19083,
  "##μίου": 58677,
  "midis": 103907,
  "##ögel": 60605,
  "##zano": 39874,
  "##ぞ": 111793,
  "21st": 38408,
  "奐": 3218,
  "Antanas": 97677,
  "zatim": 43546,
  "honum": 85926,
  "##بق": 74436,
  "venture": 48709,
  "saudara": 70810,
  "witnesses": 109898,
  "ਲਈ": 20100,
  "摩": 4218,
  "##倍": 112100,
  "##ave": 23641,
  "Državni": 38265,
  "Neben": 20483,
  "渲": 5087,
  "##deo": 47303,
  "##μό": 47851,
  "##áků": 63670,
  "##vú": 87350,
  "borders": 47360,
  "##ҙың": 44381,
  "نسخه": 78611,
  "offering": 42281,
  "poměrně": 81363,
  "##ърва": 93315,
  "128": 16196,
  "ngaran": 22291,
  "іншыя": 57613,
  "stava": 53739,
  "Kawasan": 95902,
  "##লা": 29621,
  "##吊": 112537,
  "bukti": 89542,
  "został": 11650,
  "провели": 102462,
  "##āh": 48335,
  "Ende": 12862,
  "깃": 8937,
  "##sir": 32749,
  "##world": 47637,
  "##ntado": 83645,
  "насељима": 90327,
  "##壞": 112929,
  "##快": 113572,
  "##涉": 114777,
  "##笋": 115818,
  "とは": 15904,
  "đường": 17773,
  "comer": 96699,
  "crosses": 64517,
  "Informationen": 47411,
  "Gleichzeitig": 60446,
  "sonore": 105800,
  "Moderne": 48503,
  "Сергій": 55282,
  "Taip": 64852,
  "правил": 75529,
  "##िय": 71382,
  "domeniul": 94076,
  "##σο": 34335,
  "綬": 6236,
  "Stanach": 38579,
  "##cendente": 76420,
  "separado": 92962,
  "Ansicht": 87908,
  "NRK": 51010,
  "τελευταία": 60496,
  "Astronomical": 18466,
  "zoo": 74167,
  "yılından": 74504,
  "楽": 4678,
  "Oceania": 80335,
  "办": 2596,
  "##ійський": 61890,
  "##fenster": 82789,
  "Maka": 103960,
  "BCE": 59713,
  "##僉": 112159,
  "entrant": 52269,
  "##entiert": 93752,
  "##洁": 114727,
  "Rod": 30602,
  "кілька": 32498,
  "Benton": 70758,
  "##strazioni": 104462,
  "##äufer": 83783,
  "Amore": 82010,
  "parasti": 81788,
  "male": 17416,
  "##纏": 116066,
  "##ברו": 76212,
  "انجمن": 62079,
  "soos": 27778,
  "##ന്റ്": 71534,
  "##mising": 81654,
  "priests": 82923,
  "savivaldybės": 49859,
  "kuid": 22749,
  "ὶ": 1714,
  "Verbesserung": 108291,
  "##zał": 34105,
  "##庫": 113438,
  "##ಂತೆ": 31615,
  "skupina": 25206,
  "##cił": 57230,
  "》": 1889,
  "巒": 3576,
  "دوم": 25575,
  "##舷": 116421,
  "##rins": 69746,
  "Brazila": 95432,
  "##lgt": 67841,
  "##hod": 54441,
  "Gijón": 94121,
  "Eun": 101430,
  "Вторая": 98407,
  "مذهبی": 97549,
  "##сла": 37936,
  "蟹": 7053,
  "##ఝ": 111332,
  "##ències": 26236,
  "poiché": 33842,
  "അത്": 78952,
  "涩": 5025,
  "##den": 10633,
  "least": 16298,
  "seule": 24351,
  "radical": 31991,
  "Ἀ": 1700,
  "Weltmeister": 75874,
  "claim": 27445,
  "1816": 18319,
  "##釧": 117683,
  "勺": 2637,
  "سپتامبر": 28938,
  "##ವು": 16015,
  "Boiss": 70339,
  "##פעל": 47736,
  "Farewell": 103111,
  "##uguró": 109552,
  "edərək": 69425,
  "##٢": 111176,
  "##shire": 19684,
  "Államokban": 89996,
  "##professor": 102224,
  "##ridos": 99643,
  "Dario": 59289,
  "##ческое": 25286,
  "##base": 31464,
  "##íveis": 55822,
  "Anthology": 63127,
  "鎮": 8011,
  "Track": 26403,
  "hrabstwie": 41219,
  "##דם": 35608,
  "huruf": 69763,
  "چشمه": 96803,
  "##醐": 117652,
  "##gård": 44173,
  "刍": 2538,
  "鸡": 8747,
  "##莿": 116549,
  "var": 10299,
  "Reservoir": 71847,
  "NED": 78916,
  "##율": 119183,
  "##tada": 23800,
  "875": 45949,
  "tiện": 87737,
  "##ију": 51364,
  "watak": 77007,
  "1857": 13630,
  "##bird": 37398,
  "##گیر": 52435,
  "##geführt": 43850,
  "Elk": 96440,
  "ataupun": 19074,
  "pokrajini": 52532,
  "trail": 56559,
  "##məyə": 65889,
  "##бные": 87571,
  "##哮": 112637,
  "##펀": 119387,
  "‥": 1731,
  "蟻": 7054,
  "2549": 66046,
  "ᶠ": 1622,
  "olmak": 38743,
  "Roja": 84069,
  "fueron": 12418,
  "##ding": 13971,
  "##աջորդ": 104875,
  "ℤ": 1782,
  "країни": 28482,
  "덤": 9079,
  "##qvist": 47780,
  "самому": 110369,
  "treinta": 82432,
  "cattolica": 59138,
  "##gangenen": 102577,
  "##ыла": 51103,
  "conserva": 31172,
  "kr": 50302,
  "Najlepszy": 104402,
  "##tele": 30788,
  "appearing": 44349,
  "Reign": 96156,
  "##гі": 15773,
  "berriz": 71375,
  "животных": 49800,
  "籤": 6137,
  "Stars": 17897,
  "oftest": 83657,
  "choix": 36823,
  "belegt": 51949,
  "थी": 15837,
  "##ntre": 93247,
  "넨": 9013,
  "Ź": 367,
  "##arium": 68728,
  "##പ്പെടുന്ന": 55179,
  "nr": 13798,
  "koʻp": 76392,
  "##鍋": 117756,
  "образований": 54599,
  "relazioni": 82664,
  "буде": 29891,
  "##technik": 78166,
  "ൃ": 1374,
  "##론": 42769,
  "barədə": 97428,
  "지역의": 96954,
  "##撲": 114006,
  "##షన్": 73950,
  "Stab": 106307,
  "customer": 72378,
  "##cul": 42838,
  "professionals": 53755,
  "rolling": 95794,
  "##ilaren": 100045,
  "##რდება": 105019,
  "##胴": 116308,
  "łac": 73955,
  "enthält": 32341,
  "##spinnen": 70851,
  "##ській": 20237,
  "##dran": 100534,
  "kunne": 15376,
  "сохтаи": 96540,
  "slutten": 37743,
  "##roda": 56021,
  "largo": 16921,
  "representación": 40278,
  "##рио": 47881,
  "aan": 10727,
  "kötött": 95073,
  "##מש": 35179,
  "handler": 84625,
  "##轮": 117409,
  "##上": 111844,
  "клубы": 93052,
  "públicu": 98125,
  "tổ": 21217,
  "Проте": 42354,
  "##гр": 63596,
  "traits": 68986,
  "##òpies": 107605,
  "true": 22024,
  "seun": 107755,
  "автономного": 102922,
  "Meadows": 94508,
  "mouse": 63986,
  "Llei": 81247,
  "##landı": 35783,
  "رجل": 60300,
  "natten": 94729,
  "ilmestyi": 73540,
  "nasa": 60369,
  "مرکزی": 20253,
  "##﹞": 119490,
  "Bild": 30001,
  "keren": 96395,
  "pertenecían": 71545,
  "##이었다": 58926,
  "Генрих": 89718,
  "##巒": 113342,
  "##谈": 117132,
  "izdanje": 92879,
  "pratiques": 76975,
  "Mai": 11784,
  "sĩ": 18228,
  "andra": 15486,
  "##vený": 99666,
  "य": 890,
  "##ինի": 103438,
  "Bau": 18727,
  "##medio": 84182,
  "Charity": 71370,
  "##rms": 77372,
  "##åra": 83968,
  "forment": 63642,
  "##tenu": 91007,
  "populer": 88675,
  "voulait": 109443,
  "اتحاد": 33959,
  "OECD": 96126,
  "콜": 9815,
  "jobbet": 104777,
  "##澁": 114963,
  "notas": 60823,
  "##teca": 44405,
  "oudste": 47843,
  "##нса": 64573,
  "Bahari": 88374,
  "Polsce": 16801,
  "складі": 18038,
  "Németország": 105539,
  "##Ձ": 111120,
  "Центральный": 34358,
  "namanya": 83015,
  "##zoek": 99201,
  "députés": 56896,
  "osnovu": 92073,
  "##oog": 84762,
  "શાળા": 32885,
  "יהודית": 81007,
  "verticale": 85513,
  "Furthermore": 58392,
  "Sawyer": 66811,
  "##ора": 19553,
  "##മേ": 102764,
  "##летия": 70966,
  "Той": 23106,
  "Dôme": 71228,
  "##罔": 116164,
  "Public": 14647,
  "atá": 35281,
  "斟": 4324,
  "oil": 21073,
  "эпоху": 88253,
  "Seminario": 104494,
  "Burmese": 106296,
  "IF": 25000,
  "vegades": 35532,
  "۲۰۱۸": 19397,
  "339": 34753,
  "latine": 72354,
  "Provincia": 15933,
  "ᵗ": 1615,
  "Etiopia": 89187,
  "ריצ": 101897,
  "diciembre": 16185,
  "##nalı": 91570,
  "publik": 70070,
  "اردو": 45939,
  "Kopenhagen": 59700,
  "ear": 104700,
  "##никам": 96250,
  "##ert": 11605,
  "írta": 54166,
  "Formel": 40894,
  "榮": 4692,
  "##raat": 77236,
  "##شی": 20916,
  "##穏": 115761,
  "##biorze": 107985,
  "મુખ્યત્વે": 31847,
  "adulta": 99442,
  "횡": 10001,
  "solaire": 107743,
  "1265": 88582,
  "los": 10182,
  "från": 10544,
  "##ward": 16988,
  "##ặt": 77381,
  "##rtí": 105552,
  "##weight": 31869,
  "##тарды": 71917,
  "télévisée": 26410,
  "##кага": 62162,
  "којим": 89375,
  "##雍": 118043,
  "Reino": 16619,
  "jamais": 22168,
  "##zoa": 45152,
  "Saat": 44451,
  "serveis": 34910,
  "like": 11850,
  "Stalingrad": 103039,
  "мовою": 36552,
  "##كن": 32195,
  "verloop": 42433,
  "##ließt": 67248,
  "덴": 9085,
  "##рри": 95836,
  "Silvio": 49840,
  "Arcade": 71332,
  "ובו": 81396,
  "##烧": 115067,
  "##繆": 116046,
  "##דעת": 78077,
  "قسمت": 48564,
  "墨": 3150,
  "үлкен": 56701,
  "Plata": 24550,
  "##cienza": 77065,
  "leven": 21583,
  "##弑": 113477,
  "kalba": 48743,
  "##کز": 90115,
  "felles": 94945,
  "народних": 107938,
  "##ある": 18726,
  "弱": 3727,
  "##ライ": 72881,
  "##zli": 58396,
  "##윽": 119186,
  "purple": 96622,
  "၍": 1561,
  "bord": 27482,
  "##ग": 19741,
  "##арри": 91716,
  "##揀": 113941,
  "Tropiskt": 19256,
  "빗": 9384,
  "возможность": 34835,
  "лист": 61741,
  "başlayan": 65906,
  "##酪": 117636,
  "utviklet": 55519,
  "doivent": 35499,
  "##巍": 113341,
  "##afa": 90804,
  "lineup": 90223,
  "भगवान": 73558,
  "漠": 5164,
  "заснований": 107991,
  "Loài": 11694,
  "নয়": 78274,
  "##vt": 36220,
  "détail": 91889,
  "книгу": 49745,
  "##пски": 72024,
  "pietus": 107937,
  "Browning": 61370,
  "ознаката": 83463,
  "Blum": 89905,
  "enkele": 20300,
  "##ělení": 60986,
  "##chus": 30279,
  "##лина": 23422,
  "совет": 29140,
  "钏": 8041,
  "ps": 97764,
  "##etor": 82358,
  "ఫోన్": 24036,
  "lewe": 72122,
  "financiële": 103307,
  "warning": 70990,
  "##كم": 82225,
  "##ples": 90467,
  "##ციის": 29029,
  "##ился": 30659,
  "##rolle": 47820,
  "##समा": 110427,
  "##quire": 72326,
  "にも": 15253,
  "##拜": 113841,
  "柳": 4552,
  "Concepción": 42051,
  "kommunadir": 21525,
  "תקופה": 49363,
  "贅": 7464,
  "ಮಾಡಲು": 95692,
  "##丼": 111878,
  "##WD": 65111,
  "뉜": 9038,
  "برای": 11835,
  "Ghost": 26170,
  "metrin": 36890,
  "assault": 50150,
  "Km": 73132,
  "aja": 109540,
  "##ходом": 76322,
  "ಜನರು": 96766,
  "БелЭн": 43609,
  "##bów": 81563,
  "##যোগ": 61777,
  "diplôme": 71329,
  "grands": 22705,
  "케": 9806,
  "##ndal": 73098,
  "##倘": 112104,
  "الجديدة": 51929,
  "##ционные": 61452,
  "sư": 30283,
  "Europeo": 48474,
  "Cyr": 92565,
  "##nale": 38612,
  "productores": 97633,
  "##mione": 102643,
  "組": 6209,
  "ponovo": 65503,
  "非": 8332,
  "Schools": 33543,
  "terakhir": 36357,
  "Königreich": 34435,
  "mínimo": 66394,
  "##rmi": 76936,
  "langen": 36973,
  "dimensional": 59254,
  "##nty": 63562,
  "mokykloje": 108831,
  "Regionalliga": 52384,
  "ц": 563,
  "coins": 59191,
  "Turks": 62749,
  "FactFinder": 46155,
  "placer": 106742,
  "##אינה": 75164,
  "##вание": 42133,
  "カ": 1994,
  "栖": 4569,
  "תוכנית": 44910,
  "הופיע": 65575,
  "Wilaya": 65905,
  "1647": 47588,
  "Audrey": 56437,
  "Esperanza": 67080,
  "bem": 19685,
  "##堵": 112883,
  "##耘": 116231,
  "בזמן": 39022,
  "Josh": 26085,
  "ဖ": 1513,
  "команде": 48769,
  "660": 37424,
  "##õja": 56020,
  "границы": 48290,
  "estaciones": 62935,
  "жителі": 85977,
  "technologie": 52003,
  "##kali": 36414,
  "Karol": 40129,
  "albédo": 97554,
  "##lusi": 100231,
  "##ությունից": 65683,
  "source": 15247,
  "Ř": 345,
  "لمدة": 52237,
  "##၉": 42044,
  "补": 7081,
  "Camillo": 70837,
  "##dat": 17777,
  "Renée": 85969,
  "puramente": 88849,
  "пролетната": 94845,
  "runde": 54462,
  "##çat": 85809,
  "fraction": 107433,
  "secondes": 57666,
  "ही": 14080,
  "##ēt": 54409,
  "##ława": 66290,
  "##вная": 67869,
  "նկատմամբ": 76896,
  "Youtube": 56287,
  "Darstellung": 37457,
  "##game": 80482,
  "##quias": 94472,
  "##vita": 43130,
  "wheels": 81561,
  "tratados": 101052,
  "campioni": 104799,
  "##тока": 81550,
  "Hindu": 22090,
  "而": 6459,
  "isole": 57807,
  "၅": 1553,
  "elemento": 28741,
  "అనే": 32989,
  "##rew": 84846,
  "Fragment": 66986,
  "gouf": 20807,
  "franc": 63184,
  "##¼": 110899,
  "##ærk": 103568,
  "masculino": 46252,
  "sovrano": 75672,
  "##shino": 96744,
  "holds": 28278,
  "statul": 103716,
  "##緑": 116016,
  "##荘": 116518,
  "##৪": 20699,
  "cultura": 15501,
  "arabe": 38208,
  "Freund": 42624,
  "antiguo": 27298,
  "Família": 63198,
  "聿": 6495,
  "##ಯಲ್ಲಿ": 25583,
  "Heller": 60527,
  "##啰": 112669,
  "окуу": 48046,
  "##ustrator": 73101,
  "##stów": 70128,
  "##ερ": 42881,
  "Belles": 70030,
  "would": 10894,
  "##engt": 96296,
  "##br": 36867,
  "bianchi": 106041,
  "##فت": 25050,
  "##鄱": 117619,
  "Read": 37182,
  "##ящих": 56062,
  "Sabina": 80159,
  "##оль": 39830,
  "##טיל": 89983,
  "riferisce": 101708,
  "dialogue": 51077,
  "##ён": 17968,
  "gothique": 98481,
  "Helena": 22295,
  "relatief": 74697,
  "prostora": 88382,
  "numerosi": 29183,
  "entinen": 53024,
  "们": 2206,
  "حياة": 71405,
  "entrata": 74335,
  "dischi": 107998,
  "забележан": 105038,
  "##噶": 112741,
  "##檄": 114513,
  "Josephine": 68322,
  "##hère": 98330,
  "##憶": 113717,
  "piazza": 39266,
  "1070": 85466,
  "altaria": 94600,
  "omonima": 63092,
  "##kola": 29501,
  "możliwość": 72010,
  "이라": 109864,
  "yeren": 52855,
  "estatistiken": 33383,
  "##ely": 44096,
  "respectiv": 99498,
  "##hi": 11924,
  "domów": 101204,
  "##abe": 40929,
  "పరపతి": 42107,
  "sagen": 89413,
  "your": 20442,
  "##rity": 79832,
  "назву": 31917,
  "synes": 95052,
  "Những": 29546,
  "Encore": 92868,
  "##ầu": 59328,
  "конкурс": 64895,
  "##tuk": 73384,
  "giáp": 29781,
  "區": 2665,
  "##털": 119349,
  "중심으로": 75109,
  "scandal": 83458,
  "Երևան": 28861,
  "氙": 4855,
  "contemporaine": 89428,
  "##烫": 115069,
  "Below": 79577,
  "趟": 7540,
  "##嵌": 113326,
  "##zə": 43588,
  "1737": 37414,
  "##inii": 97196,
  "##cativo": 110767,
  "maydonidir": 50354,
  "桦": 4601,
  "थीं": 93637,
  "薦": 6904,
  "բարձր": 63737,
  "##tä": 14973,
  "K": 148,
  "additional": 18568,
  "terrorista": 107695,
  "Ant": 40328,
  "##aceae": 24438,
  "trois": 12653,
  "који": 12795,
  "Yemen": 25126,
  "tujuh": 78055,
  "italiano": 12462,
  "##rts": 26215,
  "##кен": 34968,
  "##來": 112044,
  "##県": 115532,
  "boʻyicha": 86922,
  "قومی": 69372,
  "##玫": 115251,
  "##EE": 95825,
  "oorspronkelijk": 63959,
  "##垅": 112834,
  "۔": 837,
  "##楫": 114436,
  "##猫": 115219,
  "যখন": 76200,
  "##呉": 112575,
  "##ucji": 103331,
  "големите": 80869,
  "##ња": 13312,
  "Nachrichten": 65865,
  "##čnoj": 52628,
  "##奮": 113000,
  "##sehen": 65197,
  "Mahal": 96363,
  "##尖": 113229,
  "##asco": 92306,
  "septentrional": 93125,
  "objets": 40334,
  "##кую": 42688,
  "declaración": 77736,
  "Même": 94889,
  "green": 23320,
  "mwa": 77203,
  "därmed": 69792,
  "##ಗಾಗಿ": 76959,
  "Zusammenhang": 36566,
  "malam": 51697,
  "눌": 9035,
  "Guadeloupe": 88944,
  "grotte": 84259,
  "##gap": 76320,
  "##disch": 85154,
  "걀": 8862,
  "からの": 20019,
  "2013년": 19127,
  "vuotta": 28717,
  "shahardir": 36116,
  "bâtiments": 39754,
  "NC": 55838,
  "kävi": 82118,
  "peer": 56921,
  "کسب": 56292,
  "Lagrange": 102658,
  "##놓": 118748,
  "碼": 5877,
  "liggaam": 90591,
  "##lens": 97681,
  "##minazione": 99867,
  "##दार": 55904,
  "##anes": 49610,
  "Révolution": 34356,
  "satte": 51860,
  "niistä": 96864,
  "daudz": 102702,
  "eenoogkreeftjessoort": 105998,
  "##فية": 36311,
  "##篱": 115884,
  "Kristian": 35924,
  "Tokugawa": 56089,
  "spune": 100323,
  "##zania": 46136,
  "##楣": 114434,
  "##ницького": 81693,
  "rappresentazione": 96484,
  "##ерів": 101183,
  "فعل": 95458,
  "##وار": 26725,
  "##kina": 66618,
  "koadroko": 50313,
  "ุ": 1447,
  "##EP": 59742,
  "##ூன்": 71605,
  "##dek": 26811,
  "##肋": 116268,
  "boreala": 29156,
  "classification": 15075,
  "რომელსაც": 52168,
  "BY": 66710,
  "##rkve": 73671,
  "cintura": 43634,
  "扉": 4003,
  "рахунок": 79065,
  "と": 1940,
  "넌": 9005,
  "扱": 4023,
  "beschikbaar": 99285,
  "работи": 31410,
  "##ေ": 24189,
  "##짐": 119231,
  "716": 67406,
  "##жался": 109736,
  "cung": 28930,
  "हुन्": 49374,
  "771": 65580,
  "Côte": 21951,
  "##uelle": 36252,
  "대통령": 70672,
  "##alari": 84452,
  "direzione": 37988,
  "##kdom": 91039,
  "##υνολικά": 85155,
  "مثل": 15593,
  "##sına": 43930,
  "##涯": 114793,
  "entidade": 109812,
  "深": 5052,
  "trei": 30187,
  "рат": 76992,
  "renta": 79105,
  "hebben": 15572,
  "חתם": 83920,
  "главного": 43511,
  "mạng": 34855,
  "брак": 55343,
  "Richmond": 25451,
  "selama": 21041,
  "##кани": 108231,
  "Suppl": 85493,
  "మండలం": 63268,
  "Bourne": 80776,
  "Mountain": 15135,
  "meyor": 52011,
  "##рома": 109876,
  "ministère": 41853,
  "улица": 28566,
  "pave": 102731,
  "حول": 25705,
  "ザ": 2005,
  "दर्शन": 96417,
  "nominated": 25906,
  "##曹": 114218,
  "informasjon": 109581,
  "♂": 1865,
  "chapitre": 69653,
  "##ದಲ್ಲಿ": 17886,
  "battery": 57643,
  "##ime": 19151,
  "fill": 20241,
  "ಇದೆ": 62360,
  "displays": 68647,
  "##wiki": 92700,
  "氣": 4859,
  "Za": 14074,
  "changer": 88674,
  "热": 5304,
  "estats": 63241,
  "płk": 83051,
  "Алтай": 44095,
  "µm": 74099,
  "##塘": 112892,
  "mại": 63720,
  "Р": 525,
  "##major": 91279,
  "295": 26089,
  "##ahu": 49884,
  "##ast": 15171,
  "##חוף": 61766,
  "varð": 44883,
  "集": 8272,
  "Inside": 29207,
  "Simón": 57632,
  "##פרה": 60451,
  "箸": 6103,
  "cảng": 104699,
  "जनगणना": 22518,
  "窮": 6025,
  "逗": 7733,
  "922": 72446,
  "Wire": 80719,
  "##薫": 116674,
  "##팝": 119380,
  "njena": 99908,
  "European": 11914,
  "1858": 14877,
  "prije": 24230,
  "episcopal": 88192,
  "encontraba": 46227,
  "##دوارد": 104274,
  "attrice": 28139,
  "##ични": 53928,
  "மாவட்டம்": 38214,
  "finite": 80410,
  "フ": 2036,
  "pero": 11266,
  "剿": 2587,
  "##≠": 111700,
  "흥": 10021,
  "##๒": 111442,
  "##ću": 23873,
  "##sing": 16357,
  "govori": 22665,
  "називається": 88552,
  "##իթ": 109171,
  "ہوئی": 33994,
  "Gand": 101346,
  "Esch": 88243,
  "稽": 5987,
  "励": 2606,
  "1824": 17831,
  "262": 25610,
  "rappresentato": 81899,
  "emir": 93623,
  "531": 49041,
  "##тиан": 96333,
  "regionie": 29128,
  "Professor": 14389,
  "search": 22419,
  "quần": 50489,
  "ארבעה": 67156,
  "Girolamo": 57604,
  "##шине": 70493,
  "##ngue": 78902,
  "Thiele": 99577,
  "خوب": 107459,
  "Rhododendron": 82136,
  "##軟": 117369,
  "##зва": 36406,
  "##lc": 93656,
  "##醃": 117647,
  "Đào": 57268,
  "俨": 2318,
  "المركز": 23411,
  "[unused1]": 1,
  "甦": 5604,
  "枣": 4527,
  "בשל": 27854,
  "##ficu": 62103,
  "Macintosh": 62453,
  "##幣": 113404,
  "##婷": 113084,
  "ఆయన": 39567,
  "berichtet": 64836,
  "##ndi": 17938,
  "ordre": 15544,
  "##хой": 61886,
  "祝": 5914,
  "zua": 80748,
  "Гидротехникалық": 41289,
  "##hán": 91165,
  "##且": 111851,
  "الاطلاع": 79075,
  "генерального": 109493,
  "novada": 52130,
  "##art": 15391,
  "результаты": 75455,
  "scoperto": 75504,
  "##ရသည်": 64326,
  "لكنه": 85648,
  "talen": 33545,
  "##דות": 18819,
  "##čných": 41138,
  "灘": 5252,
  "睢": 5784,
  "##هاند": 101044,
  "esclusivamente": 75955,
  "##طاء": 86791,
  "zmínka": 72674,
  "穹": 6005,
  "Locuinţelor": 80834,
  "zniesionej": 87863,
  "Ichthyology": 106500,
  "##쩔": 119240,
  "##飓": 118219,
  "##ував": 23176,
  "самом": 34086,
  "##ரல்": 97904,
  "법": 9341,
  "žinynas": 56373,
  "Saudita": 102685,
  "Mohammed": 32415,
  "##ացի": 32103,
  "писател": 65767,
  "same": 11561,
  "Liga": 12895,
  "##یم": 18446,
  "参": 2726,
  "天": 3198,
  "develop": 26800,
  "ekki": 27003,
  "軒": 7600,
  "entdeckt": 35697,
  "ᵘ": 1616,
  "게임": 66402,
  "##лица": 78047,
  "##parts": 86197,
  "##ticamente": 74570,
  "Acid": 83992,
  "history": 11486,
  "##슴": 119080,
  "Eds": 44589,
  "высота": 86399,
  "входить": 64415,
  "ayudó": 107500,
  "CFA": 101637,
  "ehe": 61468,
  "##檗": 114517,
  "составляет": 17127,
  "първата": 51307,
  "keng": 68722,
  "##عقد": 69076,
  "tre": 11617,
  "##áva": 48103,
  "Clarkson": 81576,
  "saga": 28954,
  "paghatag": 85256,
  "押": 4054,
  "قدرت": 47016,
  "школе": 26804,
  "Police": 18051,
  "##யில்": 14049,
  "##錢": 117745,
  "##nji": 22459,
  "##чета": 69022,
  "##únta": 104979,
  "2월": 17520,
  "##kautta": 108304,
  "möglich": 23973,
  "妞": 3254,
  "##chat": 73267,
  "أهمية": 103767,
  "méthode": 49254,
  "##يس": 25563,
  "##niczego": 85803,
  "##geven": 60301,
  "##nstein": 70726,
  "jak": 13050,
  "##殉": 114578,
  "muyeres": 78771,
  "თბილისი": 75939,
  "##mpur": 98899,
  "Inde": 43376,
  "count": 47777,
  "##uku": 66465,
  "‧": 1732,
  "един": 23727,
  "moh": 49234,
  "normalt": 57124,
  "##bė": 52367,
  "謫": 7272,
  "##מלכה": 76858,
  "##onii": 104305,
  "##ജ്": 86678,
  "##app": 102295,
  "##maire": 72640,
  "qualifié": 95944,
  "белгілі": 57323,
  "положение": 42423,
  "волость": 70396,
  "##quence": 72494,
  "calls": 31886,
  "Aix": 46626,
  "maçında": 95257,
  "롤": 9205,
  "##łowego": 90987,
  "##党": 112209,
  "##宦": 113166,
  "ట్రాక్టర్లున్నాయి": 61651,
  "咎": 2834,
  "##耗": 116230,
  "##dce": 54496,
  "нас": 32001,
  "##íka": 65203,
  "##شته": 77033,
  "##verdi": 100482,
  "##חרים": 78008,
  "delvis": 49631,
  "sytuacji": 76931,
  "##ioca": 97285,
  "##Վ": 111132,
  "##tość": 73350,
  "##хом": 65994,
  "##rter": 55057,
  "derfor": 25167,
  "algoritmo": 14381,
  "artikkelen": 22947,
  "Polskich": 66329,
  "##夢": 112961,
  "שימוש": 38176,
  "dovuta": 97678,
  "##ینه": 67751,
  "벅": 9337,
  "library": 23187,
  "института": 30719,
  "Zeeland": 62042,
  "diproduksi": 89412,
  "##ient": 15617,
  "siya": 34543,
  "##ुवा": 109165,
  "Hollande": 88595,
  "##兪": 112216,
  "ડેરી": 35270,
  "氢": 4858,
  "##крытие": 102627,
  "ほか": 63382,
  "јој": 86667,
  "slog": 68601,
  "##ánů": 110623,
  "проекту": 39996,
  "蕊": 6884,
  "Ambrose": 71167,
  "Kurt": 18190,
  "tersebut": 12848,
  "구": 8908,
  "凸": 2525,
  "правило": 29349,
  "trenes": 92773,
  "##jr": 97575,
  "Architektur": 53891,
  "貓": 7413,
  "Rescue": 56853,
  "Bericht": 60025,
  "##णाऱ्या": 91115,
  "##ğını": 76686,
  "balls": 88301,
  "骨": 8583,
  "omstandigheden": 110279,
  "##tiv": 31559,
  "##rək": 71232,
  "boyfriend": 109465,
  "##neen": 37250,
  "Ethnic": 88298,
  "##하는": 12178,
  "أغسطس": 25173,
  "ê": 264,
  "gốc": 36513,
  "საფრანგეთის": 110041,
  "resultaat": 83672,
  "半": 2672,
  "##čnom": 46095,
  "ռ": 695,
  "眷": 5773,
  "asa": 81387,
  "##lanılmaktadır": 110274,
  "kulit": 59938,
  "Holmes": 23435,
  "porte": 17070,
  "shi": 57667,
  "consequence": 86956,
  "squad": 30580,
  "reduce": 29888,
  "##szabb": 101994,
  "Crew": 45170,
  "Гора": 64787,
  "鱗": 8668,
  "##使": 112041,
  "Mey": 42110,
  "##țe": 29690,
  "##번": 35465,
  "роден": 35674,
  "软": 7644,
  "Dust": 63116,
  "##ം": 14885,
  "##onia": 21004,
  "##íku": 58789,
  "钟": 8050,
  "são": 12372,
  "##তির": 66565,
  "filas": 101329,
  "läpi": 78158,
  "##χτηκε": 89281,
  "Volley": 94613,
  "receber": 87120,
  "##秘": 115722,
  "feliz": 100898,
  "륙": 9225,
  "counts": 92869,
  "潦": 5190,
  "Büro": 95786,
  "##bok": 30980,
  "đĩa": 54064,
  "##لو": 29426,
  "rynku": 86659,
  "##穆": 115757,
  "民": 4851,
  "вообще": 86860,
  "οποίες": 55913,
  "اللجنة": 81045,
  "olnud": 42760,
  "##чĕ": 51978,
  "۲۲": 29988,
  "##νωση": 85757,
  "##diska": 103231,
  "кар": 27196,
  "quod": 40856,
  "##லிருந்து": 55523,
  "посредством": 87953,
  "##будь": 91369,
  "Львова": 96851,
  "jaarlijks": 97319,
  "##یست": 54944,
  "数": 4305,
  "نحو": 33807,
  "Valentine": 38456,
  "SmackDown": 50943,
  "Conselho": 51595,
  "отримання": 107540,
  "##렘": 118875,
  "filmen": 25145,
  "kolejne": 61917,
  "waiting": 62052,
  "יצחק": 47006,
  "Reese": 80031,
  "alle": 10968,
  "kehidupan": 49526,
  "##၎": 111511,
  "##dn": 54998,
  "##ɛ": 110993,
  "##ושה": 47849,
  "##latz": 86255,
  "##ича": 54208,
  "##‟": 111619,
  "Sammen": 82854,
  "##tępnym": 107541,
  "pilote": 46215,
  "##徠": 113545,
  "cắt": 73077,
  "##graphical": 79422,
  "##ствената": 106921,
  "Tallinna": 27701,
  "フランス": 30422,
  "##ઉ": 111272,
  "prakticky": 104881,
  "Cullen": 90547,
  "허": 9968,
  "Reiches": 66783,
  "němž": 91469,
  "亵": 2177,
  "##zième": 99659,
  "Diablo": 82111,
  "賺": 7460,
  "regionu": 29969,
  "##滚": 114905,
  "əhalinin": 109466,
  "photographs": 54194,
  "Gregory": 22392,
  "Buck": 40477,
  "Bow": 74857,
  "vervangen": 47334,
  "ракет": 105560,
  "వల్ల": 102283,
  "బస్సు": 33658,
  "typ": 38676,
  "##لند": 64013,
  "Aldo": 43265,
  "##ruar": 85835,
  "##sivat": 86842,
  "đỡ": 100156,
  "##ita": 11622,
  "223": 24415,
  "respecte": 72726,
  "Tonight": 33200,
  "center": 15630,
  "Catalina": 44877,
  "ایسپانیا": 87174,
  "##კური": 37153,
  "##მული": 93639,
  "thấy": 19787,
  "పట్టణమైన": 42443,
  "##хим": 80517,
  "Wyoming": 39631,
  "delavrinningsområde": 58612,
  "Verbindung": 27360,
  "##赉": 117275,
  "Madrid": 11727,
  "##után": 104656,
  "##teti": 66778,
  "##满": 114908,
  "##kums": 73007,
  "핀": 9948,
  "##৫": 19351,
  "chiếc": 24264,
  "सेना": 75750,
  "Papilio": 103754,
  "désigner": 87547,
  "Provisional": 73689,
  "##iešu": 70577,
  "##pios": 88009,
  "1292": 100330,
  "Evolution": 23672,
  "valle": 25858,
  "##oons": 89305,
  "##യുന്ന": 101341,
  "##壺": 112946,
  "continúa": 83353,
  "foar": 16095,
  "ролята": 108911,
  "##стер": 24519,
  "పి": 75099,
  "participants": 35675,
  "Krakowie": 37494,
  "consumers": 97129,
  "arteria": 108437,
  "pertahanan": 94215,
  "##è": 13340,
  "АССР": 39257,
  "obertures": 101489,
  "##әге": 82886,
  "##טיים": 101033,
  "##rska": 34564,
  "bane": 102629,
  "##綿": 116012,
  "nazwa": 41533,
  "##מודי": 61441,
  "妖": 3251,
  "##усу": 105876,
  "##BC": 38964,
  "##jdt": 101395,
  "anteriors": 87661,
  "etmək": 38266,
  "храму": 86927,
  "Rizzoli": 104826,
  "##дна": 31573,
  "nothing": 33338,
  "##瞄": 115560,
  "杵": 4508,
  "##izacja": 110363,
  "##羌": 116182,
  "telles": 49551,
  "Valentina": 69917,
  "养": 2464,
  "##ային": 13039,
  "mål": 23237,
  "alone": 24087,
  "##מתן": 95765,
  "saanut": 40450,
  "##мос": 102006,
  "ovog": 39571,
  "##дээ": 101957,
  "鞅": 8345,
  "##ல்லும்": 104340,
  "Альбом": 68483,
  "Apiaceae": 101723,
  "кратер": 98012,
  "##agan": 49917,
  "flertal": 79078,
  "করে": 13334,
  "demeure": 60435,
  "##jima": 24168,
  "##ствовать": 76183,
  "surrounding": 27027,
  "##țional": 59292,
  "##捞": 113898,
  "##חומי": 70685,
  "##bos": 19804,
  "Jörg": 57108,
  "めている": 46380,
  "Daniela": 45954,
  "хыпарĕпе": 26643,
  "geschlagen": 95023,
  "yapımı": 69973,
  "failed": 20775,
  "##أقل": 91700,
  "kishin": 103478,
  "Ball": 19479,
  "##icaz": 108488,
  "средняя": 96734,
  "##garde": 79742,
  "במאי": 30495,
  "bnf": 51084,
  "##еве": 82713,
  "Horse": 27807,
  "ήταν": 12446,
  "Ivo": 46024,
  "1191": 94984,
  "Fiat": 28288,
  "mains": 47369,
  "gravemente": 81799,
  "##èixer": 85810,
  "##랴": 118862,
  "rodiny": 51570,
  "यांनी": 48326,
  "ལ": 1484,
  "вблизи": 105756,
  "Honey": 48088,
  "##勉": 112383,
  "##metraje": 104789,
  "Tionghoa": 85937,
  "Uhr": 32452,
  "##ькою": 81405,
  "##漓": 114927,
  "##漉": 114924,
  "vrh": 88801,
  "chiuso": 97728,
  "玲": 5489,
  "엉": 9558,
  "恃": 3830,
  "##ставка": 79132,
  "##鎭": 117776,
  "##領": 118151,
  "##펙": 119392,
  "unions": 76841,
  "unidade": 54278,
  "duas": 17362,
  "##шили": 61296,
  "##ੱਤ": 79628,
  "lindur": 94299,
  "##ಕೆ": 26253,
  "##cluded": 110654,
  "莉": 6766,
  "се": 10277,
  "బావులు": 32506,
  "vijeka": 47242,
  "року": 10717,
  "1499": 60811,
  "##ത്തിലെ": 31616,
  "##nur": 59471,
  "箔": 6095,
  "Citroën": 51062,
  "București": 21787,
  "thinking": 56294,
  "##dolo": 47315,
  "поред": 71469,
  "##ברים": 37796,
  "Boulder": 82175,
  "540": 23809,
  "##ционного": 47423,
  "ذکر": 55675,
  "Orbis": 98449,
  "polityk": 32758,
  "ovu": 90917,
  "##ժ": 52301,
  "懼": 3966,
  "Münster": 29049,
  "##nnan": 38379,
  "تمام": 27559,
  "uniquement": 47217,
  "##ють": 14826,
  "reflect": 67569,
  "Kategori": 70182,
  "membuat": 21261,
  "ofisiel": 66266,
  "Berlin": 11193,
  "focused": 31293,
  "##jarige": 69508,
  "##ुत": 78954,
  "jaso": 93633,
  "regions": 21721,
  "armed": 34174,
  "жөнүндө": 70420,
  "Guest": 35349,
  "отдел": 78237,
  "expertise": 85681,
  "##堂": 112868,
  "zwycięstwo": 73121,
  "poznat": 27000,
  "ní": 16020,
  "り": 1974,
  "##зе": 15748,
  "الميلاد": 86563,
  "seua": 50377,
  "έργα": 55674,
  "##凹": 112292,
  "##tée": 57695,
  "##זי": 48197,
  "regulations": 56729,
  "##ецкая": 71961,
  "##皝": 115493,
  "##sväxtart": 74007,
  "##אנה": 71529,
  "##timmung": 89786,
  "daar": 18826,
  "ja": 10201,
  "##冢": 112251,
  "hurricane": 98285,
  "Fars": 85169,
  "2°": 59931,
  "##سس": 101619,
  "##順": 118142,
  "pes": 59411,
  "##ръща": 91142,
  "molecular": 30166,
  "Miloš": 75847,
  "Monroe": 31345,
  "але": 13166,
  "##이가": 57362,
  "##ool": 47195,
  "Álvaro": 40886,
  "葡": 6829,
  "уровнем": 51537,
  "dzieła": 91173,
  "iniciado": 106686,
  "##找": 113794,
  "famiglie": 53829,
  "##ศ์": 90622,
  "##nțat": 58947,
  "Uvođenje": 58453,
  "Aquitania": 61981,
  "MS": 21018,
  "##onos": 63915,
  "Revenue": 69092,
  "Forêt": 86549,
  "qershor": 88140,
  "##継": 115995,
  "##cak": 31273,
  "188": 22345,
  "##voj": 69105,
  "码": 5828,
  "So": 12882,
  "emperador": 24244,
  "Montpellier": 38069,
  "Mires": 42764,
  "végezte": 75712,
  "971": 74757,
  "##truktur": 75585,
  "##շը": 79431,
  "zwierząt": 95576,
  "৫২": 81380,
  "Евгений": 42730,
  "즐": 9703,
  "saab": 40553,
  "lizentziarekin": 70024,
  "security": 21849,
  "nomination": 30807,
  "鲸": 8692,
  "##మానికి": 94070,
  "comité": 35983,
  "约": 6308,
  "حاليا": 72270,
  "##셉": 119047,
  "dziś": 57649,
  "misterioso": 106906,
  "paginam": 73567,
  "Góry": 110699,
  "fann": 94987,
  "জেলার": 32446,
  "##ärten": 77574,
  "oficiales": 36337,
  "satul": 39244,
  "Александър": 58428,
  "##ons": 13326,
  "meaning": 21157,
  "három": 23171,
  "盤": 5752,
  "bunu": 79471,
  "##viada": 83578,
  "Reiter": 95994,
  "##ỹ": 66556,
  "permitir": 66692,
  "##ूर": 45028,
  "Bogdan": 68194,
  "माध्यम": 77078,
  "преко": 35235,
  "районі": 23813,
  "Kaliningrad": 95679,
  "হারহান": 18110,
  "Imperiu": 75926,
  "הדבר": 80706,
  "##quito": 68859,
  "##dzia": 76071,
  "##abia": 102459,
  "單": 2928,
  "##ρημα": 107933,
  "素": 6195,
  "##ಒ": 111352,
  "பூசை": 57793,
  "ề": 1664,
  "Rico": 21012,
  "塀": 3119,
  "puțin": 48517,
  "venue": 39975,
  "Primeira": 41478,
  "Huffington": 110398,
  "##皐": 115490,
  "финала": 56381,
  "##している": 36227,
  "traite": 109953,
  "puisse": 85458,
  "##тых": 44765,
  "##issão": 74489,
  "Narodil": 68333,
  "volver": 45075,
  "mann": 52007,
  "擔": 4255,
  "forme": 14188,
  "##dingen": 83132,
  "conservan": 108008,
  "brukes": 41089,
  "Agung": 44888,
  "scozzese": 103011,
  "##과": 11882,
  "supply": 28914,
  "Bazirano": 48584,
  "Dalton": 45220,
  "présents": 65590,
  "juara": 67737,
  "degrees": 36878,
  "##NP": 59654,
  "珩": 5507,
  "بـ": 20496,
  "histórico": 29060,
  "##рди": 64228,
  "##dés": 34496,
  "цэнтр": 68554,
  "menengah": 89655,
  "慢": 3928,
  "##shin": 63840,
  "葛": 6828,
  "Þegar": 110080,
  "obtenir": 24524,
  "##σή": 38960,
  "##ρηση": 52091,
  "néerlandais": 71819,
  "Winter": 16647,
  "##ität": 24594,
  "relacionada": 71684,
  "##gués": 60409,
  "Muller": 54854,
  "sharp": 77348,
  "##lía": 109429,
  "俯": 2323,
  "##jke": 36646,
  "##SH": 64091,
  "##par": 22786,
  "vinta": 87597,
  "egyszerű": 107903,
  "Ponta": 68989,
  "Hälfte": 28813,
  "##sprache": 60247,
  "abundant": 94535,
  "maires": 29808,
  "##trutto": 109917,
  "##晶": 114177,
  "##ק": 12510,
  "딱": 9131,
  "exclusivement": 100874,
  "##악": 119110,
  "##pcions": 106662,
  "偽": 2371,
  "##琪": 115293,
  "頃": 8374,
  "Napoca": 106909,
  "Beer": 49989,
  "Scots": 39163,
  "хӀаваан": 32587,
  "Garten": 59515,
  "SFRJ": 65552,
  "[unused36]": 36,
  "començament": 66087,
  "Devil": 25410,
  "##ingkat": 66661,
  "헨": 9974,
  "##واں": 79730,
  "##גי": 38875,
  "abuse": 51401,
  "##赶": 117298,
  "##बाद": 43716,
  "ois": 41777,
  "##ìcc": 109484,
  "##ldades": 110285,
  "##ળ": 31414,
  "мĕш": 28818,
  "##setzt": 100847,
  "región": 16284,
  "##ína": 28495,
  "vsi": 77299,
  "##port": 15520,
  "1438": 83381,
  "##帰": 113388,
  "##esis": 31912,
  "active": 14459,
  "##nienia": 39095,
  "Dauphiné": 100522,
  "##攏": 114035,
  "Warszawy": 62275,
  "##敖": 114060,
  "）": 10061,
  "##tumia": 106156,
  "##燾": 115138,
  "##В": 25956,
  "##מט": 84583,
  "censusindia": 93414,
  "##yos": 42009,
  "窜": 6018,
  "##ờ": 39930,
  "Селото": 68224,
  "##룻": 118893,
  "collected": 29611,
  "##viers": 110202,
  "Države": 36785,
  "##etos": 61577,
  "##rno": 22611,
  "赉": 7509,
  "Monastery": 107965,
  "尘": 3464,
  "##辽": 117452,
  "##認": 116981,
  "쇄": 9455,
  "##êr": 38046,
  "Film": 11162,
  "osada": 59210,
  "##psze": 91761,
  "Києві": 50378,
  "##éről": 49067,
  "events": 15284,
  "##ënnt": 68765,
  "##ोर्ड": 106373,
  "SOS": 78646,
  "sebutan": 108406,
  "夜": 3192,
  "##ان": 10765,
  "##nity": 96585,
  "tartják": 110553,
  "##משיכה": 91109,
  "മറ്റു": 69812,
  "pool": 34183,
  "##ీరు": 101275,
  "prefekturen": 109474,
  "##맷": 118918,
  "ratu": 45840,
  "district": 12107,
  "構": 4698,
  "絃": 6208,
  "註": 7190,
  "виносила": 50711,
  "##ricain": 107567,
  "nacido": 36989,
  "##াম": 58354,
  "plano": 32364,
  "##jä": 19755,
  "елның": 34160,
  "##чын": 76377,
  "##гради": 76598,
  "##τισμού": 82577,
  "beziehungsweise": 60629,
  "દરમિયાન": 107263,
  "assumir": 100790,
  "##剛": 112339,
  "Nijmegen": 81444,
  "##στροφή": 87541,
  "##رضا": 59547,
  "##ვია": 59081,
  "než": 19909,
  "Melissa": 42409,
  "##υνση": 84922,
  "коммуна": 22688,
  "##łowa": 66284,
  "Tačiau": 72619,
  "Bratislave": 76240,
  "owners": 38437,
  "##ој": 26375,
  "##льны": 72563,
  "کالج": 64884,
  "センター": 26334,
  "Hiện": 77513,
  "servit": 98564,
  "##nó": 38331,
  "tendo": 19252,
  "##ççĕ": 46623,
  "##უტი": 105031,
  "गये": 77349,
  "##נקרא": 76593,
  "靴": 8340,
  "##anken": 83789,
  "単": 2683,
  "闵": 8172,
  "Schotte": 38907,
  "սկսել": 78696,
  "попису": 19970,
  "বেশি": 51719,
  "kit": 72812,
  "justerad": 30559,
  "appareils": 91735,
  "1259": 93212,
  "##赞": 117286,
  "##ք": 15232,
  "捜": 4131,
  "gagal": 70591,
  "daļa": 65824,
  "unsur": 51027,
  "☉": 1863,
  "municipale": 67722,
  "penuh": 58351,
  "soutien": 39875,
  "слабо": 88535,
  "Egyesült": 34190,
  "ortodox": 96495,
  "1217": 93694,
  "##шому": 97639,
  "железнодорожная": 103699,
  "##ијански": 105146,
  "Hierna": 93797,
  "##lj": 58254,
  "component": 38483,
  "##оче": 67741,
  "##ება": 18644,
  "dros": 44805,
  "uloga": 105761,
  "indígena": 82011,
  "##óta": 64248,
  "метод": 40973,
  "244": 27590,
  "##꿔": 118698,
  "Karim": 71139,
  "mapi": 61398,
  "##電": 118065,
  "consigue": 76515,
  "തന്റെ": 46117,
  "Lugo": 47696,
  "formal": 23129,
  "329": 33922,
  "憬": 3949,
  "կամ": 18917,
  "людьми": 72813,
  "##foot": 73486,
  "terrestres": 55977,
  "تعلیم": 65479,
  "##qdan": 89658,
  "via": 11406,
  "反": 2733,
  "##iol": 35493,
  "##קים": 20523,
  "##ந்து": 22178,
  "cunoscută": 41044,
  "##स": 13432,
  "##tanut": 51926,
  "##haber": 67034,
  "settembre": 15585,
  "##ngur": 90801,
  "ذلك": 13757,
  "utvide": 39829,
  "##блений": 98868,
  "להיות": 24648,
  "##lah": 16254,
  "##isit": 84974,
  "##ug": 19951,
  "אזור": 62426,
  "##ohr": 97062,
  "melyet": 35229,
  "##naro": 90143,
  "##félék": 99308,
  "Franzosen": 79799,
  "छगु": 18829,
  "##闷": 117939,
  "##вей": 71274,
  "Vicente": 21089,
  "belge": 34831,
  "generalmente": 27363,
  "벽": 9351,
  "победа": 48270,
  "Summary": 42027,
  "Auditorium": 100104,
  "gezeigt": 51507,
  "##سته": 31101,
  "गाँव": 28097,
  "##ын": 12119,
  "##épek": 82939,
  "##თვის": 31640,
  "##зма": 21687,
  "rota": 79965,
  "نال": 20224,
  "##аби": 86840,
  "##힘": 119471,
  "##oles": 76042,
  "basert": 46131,
  "##वाद": 44608,
  "##давно": 95227,
  "렘": 9190,
  "##্রী": 50644,
  "Rerum": 61460,
  "ООО": 61164,
  "Woods": 29010,
  "##еле": 31851,
  "Gerhard": 23148,
  "czasie": 17479,
  "##tban": 67882,
  "矗": 5811,
  "probabilmente": 31939,
  "B1": 47654,
  "aufgelöst": 47141,
  "Praia": 60641,
  "##ећи": 67300,
  "offentlige": 72677,
  "ੱ": 1065,
  "##uze": 33302,
  "aku": 105324,
  "##煥": 115101,
  "##מזרח": 55694,
  "##ūnų": 76124,
  "##start": 78022,
  "##ुर": 52398,
  "броја": 93965,
  "સુધી": 64892,
  "Ut": 83189,
  "keresztény": 110146,
  "##uhan": 25546,
  "mechanics": 87826,
  "নভেম্বর": 30965,
  "##gale": 47592,
  "Σύμφωνα": 53840,
  "genaamd": 63473,
  "anunciado": 70610,
  "eikä": 37537,
  "##bt": 18443,
  "##kli": 32812,
  "##вляє": 89067,
  "current": 14978,
  "ではない": 64259,
  "On": 10576,
  "##₁": 34071,
  "verzi": 109475,
  "##ftigen": 86126,
  "babak": 74317,
  "trying": 32862,
  "##şu": 51295,
  "##iniai": 83312,
  "堊": 3107,
  "fotografie": 63610,
  "##মাত্র": 77279,
  "##gə": 81922,
  "システム": 60144,
  "##posito": 70097,
  "nineteenth": 76730,
  "parto": 87644,
  "##۶۴": 88120,
  "besar": 15096,
  "Pass": 30598,
  "##uro": 21853,
  "jurist": 65327,
  "##huizen": 91504,
  "ähnlich": 44102,
  "weshalb": 75673,
  "ண": 1158,
  "1215": 78171,
  "कमी": 61813,
  "##erted": 46949,
  "SEDS": 70775,
  "芯": 6690,
  "Wegen": 46053,
  "teorías": 108128,
  "채": 9738,
  "268": 28583,
  "miris": 63324,
  "egyike": 97642,
  "##ఐ": 111325,
  "fars": 99416,
  "##жим": 101509,
  "##્રી": 77466,
  "Sioux": 72663,
  "rồi": 36827,
  "lapkričio": 72720,
  "Rootsi": 54475,
  "ανάπτυξη": 91103,
  "Filippo": 28413,
  "trots": 86385,
  "揽": 4194,
  "Су": 19193,
  "enfance": 59966,
  "ke": 11163,
  "##佰": 112036,
  "##గర్": 73779,
  "Kinshasa": 30084,
  "shek": 107675,
  "Դ": 628,
  "сценарист": 74129,
  "Amos": 57012,
  "CE": 31078,
  "Building": 21630,
  "Geburt": 78267,
  "##ೀತಿ": 106120,
  "##ческому": 90971,
  "Alpha": 27718,
  "衝": 7076,
  "Genus": 33444,
  "জন": 39002,
  "different": 12902,
  "##мор": 90680,
  "הבינלאומי": 82954,
  "incorporated": 32844,
  "##arangan": 106229,
  "Dramatic": 88786,
  "Barker": 46646,
  "oppkalt": 102050,
  "##існя": 75117,
  "Bazası": 102070,
  "##нство": 73554,
  "Rêu": 71768,
  "隴": 8260,
  "보통": 84097,
  "Racine": 107313,
  "hou": 109601,
  "marketing": 29465,
  "##nike": 37385,
  "écoles": 45416,
  "чаще": 71447,
  "Ӏаткъам": 69793,
  "Everett": 60159,
  "##nson": 78140,
  "Coppa": 15579,
  "מאת": 43952,
  "##руется": 55083,
  "військ": 46534,
  "συμμετείχε": 77605,
  "##tności": 84560,
  "lavitra": 79745,
  "##মি": 37376,
  "lebten": 38721,
  "馭": 8511,
  "пол": 23750,
  "##кція": 83503,
  "arco": 29497,
  "Георгия": 91023,
  "##ghed": 75395,
  "υπάρχει": 50067,
  "Rex": 33148,
  "Abschnitt": 40557,
  "короля": 25718,
  "徊": 3768,
  "##code": 54261,
  "quedando": 60339,
  "Lars": 21574,
  "Alf": 67003,
  "sztuki": 51616,
  "##gik": 57035,
  "##lische": 51329,
  "祉": 5906,
  "používa": 109373,
  "204": 22253,
  "凍": 2507,
  "class": 13596,
  "##鏗": 117782,
  "Manhattan": 23115,
  "розташована": 43534,
  "逕": 7732,
  "016": 78312,
  "მოსახლეობის": 31683,
  "##汉": 114643,
  "##谚": 117143,
  "##zera": 93613,
  "##cym": 45695,
  "Sport": 15062,
  "gratuït": 69846,
  "##нными": 76708,
  "##۷۲": 85211,
  "tróa": 102552,
  "623": 57080,
  "бүх": 105193,
  "muligt": 104041,
  "جريدة": 83849,
  "##χουν": 84967,
  "adultos": 51541,
  "poging": 107868,
  "Flores": 27959,
  "посту": 94797,
  "Aleksandr": 29027,
  "létre": 46119,
  "鳥": 8709,
  "ilçesine": 24833,
  "##frido": 100570,
  "贪": 7485,
  "##אית": 44189,
  "##ദ്": 54596,
  "矧": 5818,
  "Mauer": 80945,
  "grootte": 109621,
  "Beckett": 69240,
  "estatuan": 56724,
  "围": 3012,
  "Jerónimo": 85094,
  "Tập": 48430,
  "учасник": 79609,
  "Sègle": 70647,
  "마지막": 67313,
  "钓": 8042,
  "Colección": 83516,
  "##janja": 77189,
  "használták": 106450,
  "बारे": 70885,
  "teorije": 78515,
  "able": 16197,
  "District": 11958,
  "ؤ": 760,
  "sæson": 106455,
  "sobą": 66768,
  "##готовка": 71688,
  "Sweden": 20937,
  "##吩": 112558,
  "поле": 24375,
  "Wendy": 44859,
  "ós": 77949,
  "Clyde": 45826,
  "Vilhelm": 53641,
  "complexos": 106557,
  "##淘": 114807,
  "緞": 6254,
  "mo": 46912,
  "وقال": 56213,
  "##ettu": 46453,
  "##ovu": 64151,
  "##ɡ": 110994,
  "бою": 35084,
  "##ГУ": 58148,
  "امام": 38740,
  "##緞": 116020,
  "奘": 3224,
  "Vytautas": 79519,
  "##14": 39900,
  "##脹": 116333,
  "andet": 31151,
  "Saksen": 105208,
  "Holm": 53640,
  "๋": 1460,
  "摹": 4221,
  "Rechtsanwalt": 88480,
  "致": 6624,
  "sastra": 104298,
  "##ču": 25427,
  "##끌": 118705,
  "##ས": 111463,
  "دوري": 80682,
  "##ỏng": 56876,
  "##بشرية": 110374,
  "líquido": 83714,
  "##čina": 36463,
  "visited": 30270,
  "belles": 93678,
  "##prenta": 85515,
  "workers": 23829,
  "Chính": 31352,
  "Exposition": 54211,
  "##ähren": 104464,
  "##銮": 117723,
  "genres": 45268,
  "極": 4673,
  "Will": 15380,
  "##源": 114876,
  "##förde": 65196,
  "noe": 22484,
  "##时": 114122,
  "Cortes": 49484,
  "##how": 52743,
  "enzim": 36894,
  "ὸ": 1715,
  "såsom": 53009,
  "belakang": 51045,
  "muliero": 74453,
  "##ñera": 98722,
  "##된다": 22096,
  "##ാഹിത്യ": 99809,
  "##奏": 112983,
  "drudis": 107563,
  "草": 6745,
  "##奬": 112998,
  "ف": 784,
  "##шан": 57104,
  "sağlık": 42550,
  "##扉": 113769,
  "柠": 4546,
  "Aufgrund": 31513,
  "costas": 58654,
  "##مول": 105906,
  "##發": 115480,
  "popolo": 51244,
  "##ада": 36069,
  "Colo": 75473,
  "الرياض": 108912,
  "erhöht": 76055,
  "##anud": 92554,
  "##넥": 118735,
  "##abu": 64194,
  "दिवस": 101464,
  "Первая": 49232,
  "असून": 53414,
  "##癌": 115467,
  "遠": 7768,
  "##vida": 35192,
  "quantum": 60554,
  "##kuu": 71582,
  "196": 23674,
  "pull": 80870,
  "möglichen": 91329,
  "داشتهاست": 61680,
  "juurde": 96311,
  "##لیج": 107495,
  "testing": 38306,
  "position": 12956,
  "policía": 40589,
  "లో": 19760,
  "##hibición": 71592,
  "##車": 117362,
  "였": 9573,
  "বিভিন্ন": 34792,
  "perdiendo": 103833,
  "étant": 15944,
  "potente": 50689,
  "##ggere": 79581,
  "##kses": 83994,
  "##بطال": 108187,
  "گنتی": 98169,
  "Gen": 32560,
  "##ан": 11240,
  "##?": 110871,
  "motora": 91660,
  "офіційних": 96173,
  "1r": 40832,
  "##brun": 72747,
  "בשני": 80756,
  "ask": 63001,
  "Norway": 22582,
  "##send": 61621,
  "##انس": 72169,
  "█": 1846,
  "gouverneur": 34456,
  "##二": 111916,
  "SVT": 106858,
  "##ux": 11855,
  "Informacioni": 107685,
  "pueden": 15166,
  "##scu": 41747,
  "târziu": 46135,
  "prosinca": 57947,
  "##ESS": 76505,
  "destino": 34056,
  "##อย": 100145,
  "Corpus": 45617,
  "##ბები": 53871,
  "##糠": 115938,
  "Birth": 59461,
  "ே": 1180,
  "##ოლო": 70987,
  "细": 6330,
  "##etud": 63888,
  "##ğini": 41333,
  "Pop": 17565,
  "##бӣ": 75475,
  "determine": 37284,
  "##閣": 117907,
  "továbbra": 108884,
  "مصدر": 105732,
  "##жаны": 97331,
  "igen": 24136,
  "##দ্ধ": 47231,
  "##ppi": 36651,
  "##ιου": 105553,
  "خود": 13001,
  "째": 9719,
  "file": 23198,
  "funcionarios": 101921,
  "##氮": 114630,
  "شخص": 27767,
  "Centru": 103770,
  "женился": 73874,
  "ago": 36390,
  "établissement": 46615,
  "Molti": 94246,
  "##bili": 18043,
  "өзеннің": 40188,
  "##minente": 103515,
  "##ों": 11497,
  "אמריקאי": 74278,
  "Run": 21485,
  "נתן": 93348,
  "ludności": 30426,
  "hành": 13910,
  "Open": 11919,
  "extensive": 29164,
  "##dors": 35351,
  "đánh": 17959,
  "##節": 115870,
  "##htui": 80554,
  "dessen": 14113,
  "##эння": 39217,
  "##ovaly": 75816,
  "##oben": 108089,
  "宏": 3382,
  "j": 178,
  "defense": 30100,
  "##ūst": 87791,
  "霏": 8308,
  "собора": 79631,
  "Reference": 13679,
  "maggioranza": 73040,
  "##ωμα": 76209,
  "##俄": 112069,
  "##izacji": 51669,
  "fără": 34477,
  "vliv": 97765,
  "##िका": 34028,
  "отдельных": 52566,
  "Medelhöjden": 59747,
  "daharampehintany": 33446,
  "##WA": 42196,
  "Silbermedaille": 88070,
  "##еди": 84865,
  "##盘": 115511,
  "mentre": 12394,
  "879": 72159,
  "photo": 38171,
  "cidade": 12814,
  "produzione": 20612,
  "prim": 65122,
  "##เมตร": 61309,
  "##ae": 14193,
  "Hitchins": 80638,
  "защита": 86395,
  "hiljada": 41593,
  "aastani": 76683,
  "##מספר": 45237,
  "##zti": 77691,
  "banorë": 44547,
  "meurt": 31420,
  "dès": 19095,
  "윅": 9620,
  "##arkan": 38274,
  "Gore": 42036,
  "##야마": 65942,
  "இதன்": 35774,
  "humains": 71686,
  "긍": 8931,
  "аны": 68690,
  "potrebno": 70409,
  "##цять": 98550,
  "teacher": 24996,
  "buy": 47715,
  "Hordaland": 83485,
  "##endra": 96086,
  "##tums": 71995,
  "hod": 22131,
  "##вио": 71244,
  "Бавария": 83886,
  "infine": 33943,
  "okres": 32114,
  "##ubt": 110778,
  "hope": 50725,
  "Gall": 69170,
  "##slagen": 55294,
  "##ьори": 91832,
  "##כבים": 86341,
  "##μηση": 100513,
  "##volo": 74298,
  "punktów": 42087,
  "σχέση": 69807,
  "##oară": 87246,
  "мәғлүмәттәре": 43381,
  "Spot": 97362,
  "receive": 26286,
  "obrońcy": 109123,
  "sul": 12037,
  "obszar": 46930,
  "##ણ": 31953,
  "涓": 5014,
  "##kso": 90375,
  "Durango": 60141,
  "##kes": 21885,
  "##ith": 28229,
  "temas": 22782,
  "##олнение": 67163,
  "gevolg": 36042,
  "rep": 76456,
  "департамент": 34442,
  "stronger": 85688,
  "Литва": 110588,
  "##裙": 116875,
  "జనాభా": 27575,
  "##хований": 73245,
  "##richtungen": 84774,
  "excepción": 71269,
  "propre": 26420,
  "negativo": 86528,
  "##ап": 36744,
  "##gic": 42153,
  "##ear": 34321,
  "##bi": 11645,
  "##sale": 88258,
  "òg": 24749,
  "ી": 1118,
  "ước": 44697,
  "Оахака": 87366,
  "mænd": 103521,
  "亭": 2173,
  "##πολη": 52744,
  "сцены": 93166,
  "Gould": 42037,
  "Աստերոիդի": 100912,
  "каждом": 104443,
  "ciudá": 25292,
  "mencoba": 109382,
  "##ða": 26395,
  "истражувачи": 80286,
  "velocidade": 39936,
  "۳۱": 95330,
  "##홉": 119442,
  "dicha": 30934,
  "##胀": 116290,
  "საუკუნეში": 102642,
  "##ʼ": 111010,
  "襲": 7137,
  "##fección": 84418,
  "烁": 5290,
  "omkring": 14163,
  "##ಮ": 21234,
  "mosque": 95493,
  "##豌": 117166,
  "ೈ": 1304,
  "1873": 13789,
  "Revista": 25043,
  "Łodzi": 55614,
  "融": 7039,
  "##磐": 115649,
  "الأراضي": 77538,
  "arról": 94677,
  "##誇": 116978,
  "##ండి": 73088,
  "tempatan": 89620,
  "pápa": 101759,
  "radicale": 105667,
  "击": 2528,
  "ت": 766,
  "logements": 26817,
  "ике": 46004,
  "##jica": 90701,
  "##östa": 102483,
  "قیمت": 102746,
  "besten": 32597,
  "Syd": 91519,
  "काल": 27467,
  "##ваются": 91432,
  "##्यातील": 83588,
  "đột": 70395,
  "Ko": 30186,
  "##ী": 13100,
  "##presa": 44520,
  "חלק": 21123,
  "dowódcą": 96644,
  "Yes": 40690,
  "porodica": 99337,
  "初": 2547,
  "##爭": 115147,
  "transit": 60486,
  "ქვეყნის": 63989,
  "Julian": 23154,
  "ਕਈ": 68614,
  "##ть": 11258,
  "##ване": 23901,
  "síðar": 91722,
  "collaborazione": 41052,
  "##ವನ": 63787,
  "喱": 2930,
  "##ijd": 99621,
  "الكريم": 86256,
  "badań": 65618,
  "##צע": 31542,
  "Armada": 35377,
  "##Ẩ": 111572,
  "랭": 9172,
  "##cre": 27794,
  "Indigenous": 101178,
  "Full": 23651,
  "писмо": 109548,
  "AG": 17935,
  "##formes": 32545,
  "arriving": 65200,
  "brons": 83298,
  "##プロ": 74225,
  "residentes": 78169,
  "goles": 31579,
  "ఉన్నాయి": 11251,
  "הגדולה": 55292,
  "##¶": 110895,
  "##dió": 35747,
  "##aver": 85427,
  "##启": 112561,
  "موجب": 69477,
  "objął": 52665,
  "##цый": 69409,
  "##되지": 59902,
  "##ision": 57860,
  "##рын": 21568,
  "Olympique": 46880,
  "గ్రామాల": 52482,
  "##ули": 30102,
  "##ogischen": 54934,
  "Brüssel": 84873,
  "temperatuur": 86865,
  "##iach": 101303,
  "Miejscowość": 97612,
  "##yse": 45158,
  "##paro": 58775,
  "##طب": 75000,
  "کیلومترمربع": 57122,
  "ρ": 481,
  "Сталин": 105104,
  "##印": 112461,
  "頚": 8386,
  "entièrement": 45974,
  "racconti": 82346,
  "Moi": 82447,
  "Jose": 23029,
  "лидер": 77652,
  "##chtung": 41966,
  "privata": 61580,
  "αριθμός": 79048,
  "Latvijā": 56693,
  "##vaan": 107155,
  "полі": 98799,
  "tym": 12644,
  "соединения": 110222,
  "تکزاس": 92179,
  "옆": 9575,
  "یکدیگر": 85574,
  "##刘": 112309,
  "nera": 86168,
  "ქალაქი": 44391,
  "baru": 18049,
  "Payne": 48644,
  "壽": 3181,
  "1665": 39943,
  "osobní": 108810,
  "volgende": 19352,
  "begannen": 59837,
  "negras": 110038,
  "Places": 21921,
  "楊": 4659,
  "interchange": 81098,
  "##מכים": 103217,
  "##斤": 114092,
  "Ricky": 40486,
  "загальному": 72559,
  "##dw": 96407,
  "Рәсәйҙәге": 58861,
  "extrema": 85862,
  "elke": 39481,
  "##meen": 83012,
  "##रो": 101841,
  "領": 8385,
  "Ọ": 1670,
  "##AS": 38025,
  "##86": 103450,
  "αυτήν": 109671,
  "escrita": 23542,
  "##los": 13788,
  "##ు": 15697,
  "##amento": 16686,
  "11th": 34062,
  "##組": 115975,
  "##ագրության": 90597,
  "鉈": 7934,
  "czego": 51995,
  "蒼": 6851,
  "되는": 54780,
  "abil": 86766,
  "exhibited": 62514,
  "##RI": 46876,
  "systemu": 55327,
  "वर्तमान": 62761,
  "Rosaceae": 107077,
  "##argo": 106520,
  "Spy": 51900,
  "Chemin": 98188,
  "Niemcy": 53689,
  "Merrill": 59905,
  "##頒": 118148,
  "meisten": 23094,
  "Hofmann": 84745,
  "grenst": 91062,
  "früheren": 42936,
  "publisher": 45072,
  "##пе": 19820,
  "##؛": 111168,
  "##사와": 95581,
  "játszott": 46904,
  "۶۰": 102704,
  "वंशया": 70795,
  "диска": 97941,
  "dem": 10268,
  "Belgia": 39023,
  "##tazioni": 94349,
  "случаев": 102532,
  "программ": 84515,
  "##ցվում": 81304,
  "sèrie": 31490,
  "##обода": 54668,
  "Catalana": 58585,
  "എന്നിവ": 67172,
  "##ப்பின்": 79854,
  "Putra": 89164,
  "četiri": 33371,
  "Edith": 37646,
  "##johanan": 95546,
  "Technical": 29237,
  "##xel": 47782,
  "##heim": 13980,
  "stretto": 99244,
  "ВВС": 57653,
  "Vance": 89402,
  "фильмах": 95882,
  "जिसमें": 40001,
  "uusia": 96521,
  "soggetti": 85220,
  "Nếu": 69106,
  "##fuge": 101935,
  "##돗": 118797,
  "ṟ": 1637,
  "Aga": 103721,
  "フォン": 85665,
  "маркази": 95075,
  "##ówka": 86595,
  "Hindi": 31341,
  "يناير": 23206,
  "विभिन्न": 26472,
  "segue": 41173,
  "Vereine": 65172,
  "##áře": 69969,
  "efforts": 22116,
  "gener": 26963,
  "##fre": 37135,
  "gar": 47243,
  "##ежа": 60151,
  "##炸": 115051,
  "##晓": 114160,
  "gặp": 37928,
  "WikiSky": 35517,
  "1760": 25883,
  "videre": 33015,
  "Hinweis": 60969,
  "のみ": 26922,
  "поблизу": 57426,
  "##弗": 113482,
  "personal": 14927,
  "hardware": 39894,
  "##name": 23920,
  "akit": 74461,
  "deze": 12032,
  "##tō": 80920,
  "miejscowość": 18707,
  "hätten": 59018,
  "Ukrayna": 102624,
  "##yia": 73463,
  "unterschiedlichen": 51263,
  "בערוץ": 93046,
  "previously": 17477,
  "##зна": 45572,
  "cờ": 94683,
  "niemieckich": 78939,
  "Portable": 76530,
  "鲈": 8680,
  "bereikte": 79041,
  "##ticos": 33167,
  "##ової": 29906,
  "Башкортостан": 23581,
  "yhtiön": 87531,
  "##dels": 76070,
  "its": 10474,
  "görev": 38733,
  "product": 21535,
  "##览": 116927,
  "երկար": 104863,
  "séjour": 91689,
  "zemlje": 42444,
  "telo": 101442,
  "##gehend": 41614,
  "biegu": 47070,
  "generally": 18081,
  "ษ": 1432,
  "samme": 16766,
  "##há": 29782,
  "inglesi": 69151,
  "dâ": 21279,
  "populære": 79877,
  "devine": 84010,
  "Liber": 50679,
  "۲۰۱۴": 73948,
  "##MI": 79443,
  "##бар": 26711,
  "##ả": 30697,
  "诰": 7351,
  "außerhalb": 43000,
  "##arquia": 85739,
  "##portivo": 69786,
  "ノ": 2029,
  "##tsa": 103148,
  "##phen": 60383,
  "1927": 11442,
  "Slekt": 71015,
  "##իտությունների": 90390,
  "switch": 56673,
  "titled": 23621,
  "erbaute": 105248,
  "芭": 6688,
  "efectiva": 106802,
  "nom": 11407,
  "pierwsze": 38007,
  "definita": 100359,
  "ь": 569,
  "##øy": 27288,
  "aggiunta": 78333,
  "etgan": 56235,
  "##좌": 119215,
  "1929": 11336,
  "tap": 66956,
  "##mozione": 99376,
  "##worth": 17929,
  "##ову": 28677,
  "lệnh": 33586,
  "боевых": 44711,
  "liggen": 49490,
  "ն": 689,
  "بنا": 35364,
  "##hese": 80450,
  "##risë": 75776,
  "##łym": 74769,
  "fourteen": 77776,
  "##тпуно": 106560,
  "sports": 18204,
  "##던": 23990,
  "autobus": 72937,
  "253": 25124,
  "##أم": 80358,
  "Espanjan": 88949,
  "volúmenes": 96739,
  "novels": 41116,
  "##员": 112582,
  "sexe": 18793,
  "Ingelesez": 20385,
  "defend": 60041,
  "##meenistrative": 92496,
  "缪": 6386,
  "##нгия": 86954,
  "##ске": 14430,
  "lucrări": 109131,
  "объявил": 79467,
  "removal": 65342,
  "Andy": 16802,
  "twintig": 105005,
  "semifinalen": 106917,
  "弭": 3725,
  "Amerikana": 72978,
  "##闵": 117938,
  "специально": 92909,
  "##팀": 74399,
  "##עולם": 49597,
  "Elder": 57510,
  "##κτικά": 106397,
  "eveneens": 50216,
  "nyári": 101953,
  "##asis": 108320,
  "##ëhet": 109058,
  "U2": 47190,
  "##于": 111917,
  "t": 188,
  "##rly": 52347,
  "珲": 5511,
  "207": 22730,
  "riferimento": 39412,
  "parvient": 50656,
  "હતું": 31571,
  "##ყ": 111516,
  "등의": 28697,
  "##ър": 19253,
  "növü": 50921,
  "Její": 61936,
  "loaded": 103927,
  "prieuré": 100051,
  "Statoids": 51655,
  "##hes": 19904,
  "뀌": 8968,
  "##اتور": 76011,
  "viele": 18602,
  "რომელიც": 17742,
  "jornal": 57083,
  "##斷": 114100,
  "583": 49134,
  "##ını": 19901,
  "鳕": 8702,
  "##ytet": 83907,
  "셰": 9446,
  "##tades": 60936,
  "壳": 3176,
  "übersetzt": 58420,
  "معرفی": 63179,
  "塩": 3131,
  "##лком": 85464,
  "##riendo": 82790,
  "sailkaturik": 33411,
  "##ување": 30362,
  "##аран": 69764,
  "##웨": 119173,
  "립": 9243,
  "עד": 14141,
  "##явления": 71717,
  "vicinity": 87699,
  "three": 11003,
  "destroy": 59792,
  "폼": 9932,
  "seriously": 75543,
  "##ļos": 107464,
  "Οι": 15503,
  "przestrzeni": 83669,
  "kladograma": 26255,
  "Cabinet": 49855,
  "##케": 88332,
  "створення": 34780,
  "kokatua": 37256,
  "##inta": 42948,
  "Agricultural": 43393,
  "aon": 78947,
  "Arms": 35036,
  "àlbum": 76619,
  "UE": 44693,
  "##amerika": 45398,
  "Материалы": 82279,
  "betydelig": 72338,
  "norsk": 16034,
  "1315": 87466,
  "escena": 30825,
  "vient": 31043,
  "##justed": 101762,
  "##ন্ড": 77045,
  "vị": 15598,
  "##vador": 104728,
  "secreta": 97289,
  "voo": 85413,
  "平": 3641,
  "azonban": 18034,
  "##מיה": 50470,
  "Uniwersytetu": 34630,
  "Biała": 103238,
  "##薛": 116669,
  "wyspy": 84205,
  "##斌": 114082,
  "##likult": 61086,
  "segmento": 75854,
  "##يدية": 103249,
  "సరఫరా": 17379,
  "1961": 10875,
  "stenen": 92639,
  "აპრილი": 107372,
  "##である": 18630,
  "죽": 9690,
  "acordo": 19979,
  "gràfic": 58936,
  "##oco": 58165,
  "##गर": 45086,
  "##冒": 112244,
  "המועדון": 89843,
  "немецкого": 87322,
  "Comparative": 60562,
  "##mektedir": 22567,
  "התנועה": 62059,
  "##榈": 114448,
  "faisait": 45446,
  "##ss": 13420,
  "المتحدة": 14710,
  "۲۴": 54803,
  "emissions": 88126,
  "landskapet": 28886,
  "id": 12604,
  "tương": 24959,
  "isa": 34607,
  "##kop": 46392,
  "آورد": 62542,
  "Lucy": 26479,
  "##inkan": 64210,
  "##мо": 19900,
  "länger": 78009,
  "chữ": 38417,
  "のための": 49969,
  "##曝": 114208,
  "##ließ": 67416,
  "匿": 2664,
  "Shadow": 27861,
  "proprio": 17191,
  "##ריה": 28233,
  "##ופים": 75176,
  "jaman": 108241,
  "Đây": 34563,
  "##玄": 115241,
  "alue": 58454,
  "genommen": 38023,
  "##VE": 68560,
  "divisio": 36162,
  "Habita": 74012,
  "znamená": 58194,
  "Spiel": 21055,
  "Fund": 26762,
  "भएको": 31454,
  "縻": 6276,
  "ცნობილი": 63919,
  "##kok": 48349,
  "##nger": 18904,
  "##km": 23440,
  "##اذ": 56580,
  "##დების": 71461,
  "##ਗੀ": 103399,
  "ऱ": 892,
  "##填": 112898,
  "drawings": 82301,
  "figuur": 29649,
  "爆": 5374,
  "鉱": 7942,
  "Serikat": 25716,
  "##rung": 20249,
  "##ча": 13035,
  "##عيد": 52228,
  "verbal": 70850,
  "##ulan": 43531,
  "##μων": 47587,
  "Drug": 33977,
  "Ferdinando": 52060,
  "okręt": 84046,
  "alcançou": 94110,
  "##啸": 112671,
  "えていた": 88557,
  "relativamente": 32004,
  "##били": 40339,
  "hyn": 40683,
  "orthodoxe": 79571,
  "筹": 6086,
  "jauh": 44732,
  "706": 63683,
  "challenging": 109024,
  "Guru": 38674,
  "ligada": 104623,
  "Tadeusz": 42737,
  "Stein": 23365,
  "நிர்வகிக்கப்படுகிறது": 66132,
  "##ριών": 58522,
  "##鹘": 118532,
  "būt": 91698,
  "##賂": 117205,
  "Русский": 51673,
  "бассейнĕ": 23330,
  "grant": 41100,
  "nata": 44420,
  "##вський": 77556,
  "extant": 104967,
  "##حلول": 81685,
  "##حدد": 82681,
  "##ൂർ": 29946,
  "utenfor": 60443,
  "862": 71946,
  "##bido": 100150,
  "##koms": 107720,
  "##稳": 115749,
  "##ਜੇ": 70609,
  "ion": 48318,
  "##JR": 89195,
  "்": 1185,
  "##সা": 60398,
  "宙": 3387,
  "韜": 8360,
  "dî": 37953,
  "numbers": 20953,
  "православной": 85514,
  "インド": 82265,
  "##rnek": 99882,
  "##дарда": 98391,
  "##vić": 18692,
  "Till": 32259,
  "##igan": 36784,
  "##ားသည်": 85920,
  "##žnyčios": 95819,
  "अक्सर": 101925,
  "멈": 9269,
  "לבין": 38681,
  "jeugd": 90105,
  "##живает": 43764,
  "していたが": 32998,
  "柜": 4543,
  "өөрийн": 101017,
  "Барселона": 87567,
  "Helm": 76973,
  "Cantor": 105536,
  "Sacred": 47568,
  "términu": 62994,
  "##klos": 80701,
  "mengalahkan": 83941,
  "##еви": 82095,
  "辍": 7659,
  "matches": 18258,
  "contains": 18286,
  "Feature": 62683,
  "##스를": 98500,
  "malé": 67726,
  "boud": 107428,
  "##研": 115598,
  "##్యం": 56102,
  "dre": 35028,
  "sait": 64606,
  "##graphs": 70516,
  "промени": 86437,
  "الملكية": 77667,
  "##квы": 65930,
  "medio": 15762,
  "##quila": 110214,
  "gammel": 46793,
  "##缇": 116137,
  "revenuo": 24879,
  "##ходы": 95001,
  "федералдык": 108303,
  "Antarctic": 29824,
  "PK": 62390,
  "##מדי": 74998,
  "кушылганга": 83331,
  "##stellt": 92182,
  "##ัส": 104125,
  "■": 1847,
  "이어": 64749,
  "##瘟": 115456,
  "##üra": 82505,
  "imprensa": 98505,
  "Permendagri": 52364,
  "##דמויות": 110118,
  "##risch": 36865,
  "##piej": 90613,
  "interna": 29696,
  "březnu": 108505,
  "##떡": 118834,
  "न्यू": 101600,
  "##丰": 111871,
  "##وام": 66252,
  "##ိုင်": 46974,
  "ruch": 88077,
  "barang": 55248,
  "lui": 10830,
  "които": 16031,
  "噛": 2968,
  "fór": 93860,
  "緑": 6250,
  "##ικές": 28232,
  "Kristiansand": 96110,
  "##毯": 114613,
  "왔": 9594,
  "comedia": 54491,
  "runt": 10528,
  "Floride": 96893,
  "##मंत्री": 109520,
  "##shi": 16119,
  "options": 53121,
  "##ежды": 86703,
  "hebbt": 23421,
  "каде": 26465,
  "Superstar": 75929,
  "##ordnung": 37620,
  "##茱": 116501,
  "Bosch": 41109,
  "chỗ": 71535,
  "գործում": 85031,
  "Wladimir": 103980,
  "##淆": 114802,
  "недалеко": 72118,
  "##dami": 68137,
  "##ετές": 93525,
  "##žnej": 103613,
  "##摔": 113980,
  "핸": 9962,
  "У": 528,
  "близько": 17632,
  "##שדה": 79910,
  "Protein": 46408,
  "##끗": 118708,
  "landed": 58961,
  "tù": 81556,
  "kring": 31873,
  "##لاح": 77456,
  "Index": 12135,
  "Inferno": 66404,
  "ద": 1217,
  "Јован": 69314,
  "Umeå": 79677,
  "termo": 32279,
  "##လ": 41866,
  "perin": 56530,
  "ибн": 59073,
  "##YP": 98904,
  "##聿": 116261,
  "Lors": 20955,
  "చెరువు": 105129,
  "νησί": 89717,
  "##将": 113217,
  "दयाच्वनि": 66636,
  "αυτή": 23937,
  "rien": 37575,
  "порядку": 90574,
  "##氯": 114631,
  "sequence": 30265,
  "Hermann": 15833,
  "helft": 65072,
  "hectare": 69129,
  "##듀": 118811,
  "##ുന്ന": 75999,
  "sidste": 39372,
  "##цо": 39379,
  "##意": 113672,
  "freight": 75843,
  "##familien": 55621,
  "kamera": 59985,
  "उब्जाउ": 97890,
  "по": 10297,
  "Karten": 87345,
  "##her": 14206,
  "fábrica": 47746,
  "Hut": 104185,
  "##caria": 72779,
  "粤": 6152,
  "Tanaka": 59616,
  "##lac": 63279,
  "잦": 9658,
  "बिस्तारं": 67424,
  "蜃": 6999,
  "Валерий": 67335,
  "г": 544,
  "przełomie": 85664,
  "Stefano": 26381,
  "थियो": 28860,
  "совершил": 75083,
  "главы": 82521,
  "vasario": 76759,
  "##щественный": 95213,
  "⅔": 1784,
  "##יטי": 43553,
  "branch": 24660,
  "ਇੱਕ": 16019,
  "##ецький": 56275,
  "##obra": 91495,
  "Ecclesiae": 99229,
  "##饲": 118259,
  "##jno": 34777,
  "##ximo": 91193,
  "dapit": 21565,
  "Moraes": 97361,
  "##ಂತರ": 60551,
  "##歎": 114551,
  "સ": 1114,
  "##ucci": 41670,
  "ভাষায়": 28590,
  "##šnjaci": 106936,
  "##照": 115103,
  "Everest": 67928,
  "##штар": 105501,
  "忤": 3804,
  "##瓏": 115347,
  "kaunti": 66949,
  "Odonata": 39363,
  "komanda": 64378,
  "verden": 31708,
  "Kebangsaan": 25928,
  "า": 1441,
  "##국의": 39485,
  "シングル": 68250,
  "挽": 4120,
  "##kých": 16234,
  "##恰": 113615,
  "proceni": 15056,
  "##校": 114338,
  "Botschafter": 95296,
  "##գայի": 98660,
  "grades": 52175,
  "##璉": 115331,
  "conflitto": 56761,
  "##둘": 118805,
  "relación": 19109,
  "##ilina": 87385,
  "##лардын": 92932,
  "##cağı": 84825,
  "##houding": 81241,
  "##ต์": 53008,
  "sìndich": 71391,
  "##binae": 108550,
  "##mberg": 49819,
  "Wiltshire": 81782,
  "##ছ": 53574,
  "كندا": 96380,
  "##didae": 33012,
  "lliure": 78998,
  "##arni": 73482,
  "commanded": 51195,
  "земле": 55896,
  "皂": 5717,
  "##اید": 75186,
  "##phus": 29533,
  "Ramon": 33894,
  "permanece": 79942,
  "invierno": 66585,
  "##暑": 114188,
  "##险": 117993,
  "Ձ": 641,
  "##redi": 110685,
  "##場": 112882,
  "Dzięki": 68709,
  "##fiques": 49945,
  "woj": 64199,
  "wokół": 68420,
  "Jansen": 60709,
  "domini": 60866,
  "Sachs": 65631,
  "##ொண்டார்": 98111,
  "##గా": 12540,
  "몽": 9291,
  "##ན": 111456,
  "Пермь": 95315,
  "##ვი": 27560,
  "塊": 3121,
  "pg": 42302,
  "##שה": 16661,
  "##уле": 63602,
  "цю": 53391,
  "##銀": 117712,
  "Pinto": 46050,
  "money": 17920,
  "##উ": 89362,
  "1504": 56489,
  "矢": 5815,
  "Reeve": 89016,
  "##秤": 115725,
  "rapid": 39782,
  "بیلیم": 64267,
  "limbi": 77755,
  "##ewicz": 108933,
  "車": 7596,
  "Амрико": 65939,
  "Autónoma": 53348,
  "##yu": 25285,
  "вважається": 81750,
  "fight": 20780,
  "bentuk": 26017,
  "coincide": 81860,
  "Foley": 78252,
  "##淀": 114799,
  "##σία": 19144,
  "または": 30574,
  "337": 32225,
  "##渕": 114838,
  "##ず": 19973,
  "##yib": 109762,
  "ס": 740,
  "từ": 11840,
  "при": 10913,
  "550": 20676,
  "کچھ": 50554,
  "1895": 12599,
  "안": 9521,
  "berbeza": 87925,
  "鏽": 8021,
  "tactics": 101785,
  "##抹": 113819,
  "stanovništvo": 37018,
  "баландии": 60222,
  "precise": 89165,
  "combinatie": 98741,
  "public": 11683,
  "##ьон": 109682,
  "Austen": 89572,
  "Türkiyə": 81140,
  "briefly": 36327,
  "##곤": 118639,
  "##cephala": 91239,
  "﴿": 10038,
  "##ء": 12611,
  "Mainz": 29971,
  "sungai": 44934,
  "kariery": 63068,
  "##org": 82774,
  "slov": 104283,
  "ponin": 32211,
  "##zica": 84049,
  "##bilan": 47898,
  "##噛": 112734,
  "stanowisku": 87993,
  "键": 8108,
  "ਹੋ": 37330,
  "लिये": 37535,
  "Linares": 91354,
  "Будучи": 97431,
  "ouvre": 53455,
  "##istant": 90986,
  "##ью": 27025,
  "##plu": 93005,
  "##чэнні": 65630,
  "##ッション": 95878,
  "другим": 27110,
  "روش": 44563,
  "Vaucouleurs": 46311,
  "##dnia": 63168,
  "##nstva": 67336,
  "##vela": 69538,
  "##τον": 91452,
  "rencontres": 62088,
  "convirtiéndose": 65510,
  "##hini": 89399,
  "##ritz": 102761,
  "afkomstig": 52557,
  "##щён": 54280,
  "versetzt": 71578,
  "##gua": 20337,
  "grupę": 82882,
  "collecting": 88737,
  "Caen": 51011,
  "дерев": 56572,
  "Souza": 53558,
  "sonora": 28714,
  "Qi": 88454,
  "Jena": 35848,
  "565": 44522,
  "Nowy": 40559,
  "két": 14834,
  "##滅": 114893,
  "##zas": 20454,
  "Baie": 66731,
  "ספרים": 62539,
  "##meiden": 109391,
  "Espanya": 22600,
  "##tul": 26083,
  "において": 18189,
  "##ymi": 44918,
  "##標": 114486,
  "##عدام": 80809,
  "hewan": 91164,
  "воде": 50981,
  "க": 1152,
  "##plir": 94086,
  "##linie": 31998,
  "sista": 44974,
  "##zy": 12547,
  "University": 10404,
  "vert": 20900,
  "##tituzione": 102225,
  "##祜": 115679,
  "sola": 19769,
  "manusia": 27777,
  "escultura": 48167,
  "homosexual": 91175,
  "auteurs": 23720,
  "##ро": 14315,
  "##cká": 36905,
  "받고": 79602,
  "wsi": 21882,
  "бази": 95336,
  "Nu": 28336,
  "эпизод": 67866,
  "##셀": 119045,
  "Սուրբ": 62871,
  "Asteroiden": 104934,
  "Google": 13888,
  "##կյան": 87716,
  "Andalucía": 45588,
  "Denver": 29357,
  "##baliknya": 104243,
  "Nicht": 52397,
  "Bununla": 89725,
  "##hioù": 96203,
  "刹": 2559,
  "modes": 58686,
  "##లయం": 63616,
  "肖": 6504,
  "milimetro": 12561,
  "mạnh": 29172,
  "всей": 35437,
  "اقتصادی": 57919,
  "максималната": 89791,
  "loppuun": 105072,
  "enseignement": 35614,
  "reso": 86286,
  "264": 25356,
  "linky": 110417,
  "##︰": 119484,
  "Four": 16773,
  "##ської": 12938,
  "Cover": 18251,
  "わ": 1978,
  "##brio": 75815,
  "النباتات": 74713,
  "kurio": 76694,
  "##сил": 64631,
  "зони": 81614,
  "彭": 3754,
  "涕": 5015,
  "##fattet": 88843,
  "##瞥": 115566,
  "##ște": 20158,
  "Spa": 64766,
  "quam": 29153,
  "progressivement": 68960,
  "##ðir": 47182,
  "온": 9582,
  "挥": 4113,
  "##ციაში": 72644,
  "##kapelle": 80153,
  "##nictwa": 39948,
  "Saab": 73781,
  "performance": 14432,
  "##ütze": 71060,
  "Abad": 87944,
  "efterfølgende": 100651,
  "Putin": 65308,
  "Bologna": 22615,
  "##匯": 112424,
  "Mito": 63223,
  "##כרים": 87707,
  "recover": 94962,
  "##όταν": 59108,
  "Christ": 19067,
  "қазіргі": 63517,
  "तहसीलया": 43101,
  "висока": 78651,
  "##ım": 26398,
  "JA": 53399,
  "gael": 78380,
  "verde": 23100,
  "bolesti": 55924,
  "studenti": 57396,
  "##acho": 63988,
  "Печора": 24881,
  "фестивале": 99933,
  "giới": 15814,
  "##닐": 118768,
  "являлся": 48942,
  "##udo": 33498,
  "mesmo": 13544,
  "մի": 18915,
  "##卓": 112444,
  "plays": 17724,
  "excepto": 66589,
  "kalas": 27585,
  "aastat": 55978,
  "##eler": 49205,
  "##儡": 112184,
  "monet": 79139,
  "Павел": 31936,
  "##̧": 111021,
  "##euvre": 108658,
  "##ala": 13322,
  "##mmi": 80808,
  "iglesia": 24240,
  "Джек": 93043,
  "##hindert": 100201,
  "tro": 42169,
  "監": 5751,
  "dx": 102759,
  "陟": 8220,
  "gelegt": 81167,
  "炫": 5278,
  "##ácii": 94660,
  "瞥": 5800,
  "##cán": 45641,
  "яе": 36986,
  "##բ": 27664,
  "Regia": 65556,
  "Przy": 67707,
  "扩": 4016,
  "913": 75316,
  "##зода": 87572,
  "##ίζονται": 59001,
  "郭": 7832,
  "Ciências": 71105,
  "##mskih": 109597,
  "Veliki": 41515,
  "##HC": 41524,
  "Giancarlo": 74991,
  "mayoría": 17579,
  "वगु": 75108,
  "brasileiro": 22855,
  "Administración": 71715,
  "budapesti": 74136,
  "Anton": 16242,
  "扑": 4007,
  "辙": 7666,
  "Book": 13801,
  "##ओं": 18906,
  "conçu": 74000,
  "دسمبر": 96188,
  "##סט": 44478,
  "definiert": 78865,
  "isolation": 106750,
  "##좁": 119213,
  "kampioenschap": 57350,
  "affari": 92811,
  "梦": 4614,
  "##関": 117906,
  "##nul": 41464,
  "בעולם": 33896,
  "nekih": 85370,
  "潛": 5184,
  "률": 9227,
  "apoyo": 30390,
  "##ζόταν": 57388,
  "##nanie": 69176,
  "##tense": 79086,
  "謳": 7274,
  "##坠": 112822,
  "Nil": 66163,
  "tout": 13003,
  "##уб": 40124,
  "conté": 73910,
  "безпосередньо": 110847,
  "##שם": 34033,
  "##երին": 30657,
  "Survey": 17341,
  "нарича": 90771,
  "##Ō": 110958,
  "об": 13248,
  "##働": 112160,
  "روستایی": 25887,
  "##ゲーム": 54638,
  "Stanów": 61575,
  "rit": 80140,
  "alternativo": 75821,
  "##hium": 89140,
  "##ств": 19021,
  "Sami": 49324,
  "حصل": 49937,
  "Wanda": 68285,
  "Shackleton": 99955,
  "Alt": 24466,
  "gustini": 104949,
  "tsunami": 86670,
  "Lee": 12006,
  "directeur": 19971,
  "##tachée": 97424,
  "ohella": 88565,
  "bairro": 41837,
  "aspx": 35132,
  "##陪": 117994,
  "##î": 25790,
  "appointed": 14896,
  "свету": 44387,
  "সংস্করণ": 87695,
  "severely": 77464,
  "svojim": 26703,
  "##ově": 40113,
  "使": 2275,
  "WDR": 96442,
  "罩": 6404,
  "superiore": 31066,
  "búsqueda": 69157,
  "veterans": 95320,
  "giustizia": 101113,
  "rencontre": 21702,
  "##полнения": 103940,
  "religie": 91149,
  "##抨": 113814,
  "Channel": 16558,
  "##рам": 42495,
  "mauvais": 80934,
  "įvyko": 92446,
  "##絃": 115974,
  "##തം": 36655,
  "Melody": 55387,
  "מאשר": 93536,
  "елгы": 24303,
  "először": 29513,
  "##časně": 74551,
  "ಕೆಲವು": 34561,
  "aria": 35745,
  "पौराणिक": 61160,
  "tæt": 106665,
  "الحكومية": 110664,
  "##髮": 118366,
  "##чына": 107704,
  "##ković": 38057,
  "嗣": 2941,
  "##ggen": 55421,
  "Powell": 25440,
  "αγώνες": 60147,
  "vapeur": 102364,
  "tuvo": 14765,
  "##inkel": 106996,
  "кое": 43324,
  "izen": 104008,
  "##匍": 112412,
  "##pense": 34711,
  "colonial": 26098,
  "posiciones": 67176,
  "χιλιόμετρα": 80908,
  "##칙": 119283,
  "##ellen": 25547,
  "risposta": 75598,
  "##жко": 110408,
  "լ": 679,
  "област": 29482,
  "podporu": 85085,
  "##чёт": 56604,
  "juna": 89822,
  "##school": 46196,
  "Dane": 79157,
  "##pic": 34891,
  "кино": 27274,
  "Червоної": 102408,
  "finnes": 28242,
  "##оны": 34501,
  "##éologique": 104424,
  "##完": 113146,
  "funcție": 92173,
  "민": 9311,
  "##ন্ত": 70115,
  "কাছে": 62920,
  "##コン": 60723,
  "toliko": 84647,
  "哑": 2862,
  "desembre": 29248,
  "губернії": 65425,
  "##かる": 77610,
  "pagine": 100603,
  "muzej": 95092,
  "##〜": 111784,
  "##rz": 19435,
  "Złoty": 68584,
  "людина": 91632,
  "##cações": 92476,
  "పారబోస్తారు": 42659,
  "緒": 6251,
  "##lite": 66289,
  "názvem": 43399,
  "##hai": 37821,
  "##攪": 114042,
  "occhi": 55598,
  "опера": 57972,
  "अगस्त": 73835,
  "Rijk": 75477,
  "класификација": 74408,
  "palace": 52140,
  "עצמם": 96351,
  "##стен": 49271,
  "matemático": 87878,
  "belong": 73746,
  "begyndelsen": 82293,
  "##탈": 119336,
  "richtte": 83738,
  "##機": 114507,
  "2545": 93438,
  "##ਢ": 111253,
  "##nkirchen": 75742,
  "##logical": 32371,
  "osob": 93183,
  "nekā": 75680,
  "##rue": 76889,
  "Tatiana": 87693,
  "##ćena": 105976,
  "##貴": 117195,
  "berdiri": 76965,
  "כנגד": 54192,
  "stoljeća": 29685,
  "கலந்து": 58018,
  "nacimiento": 59999,
  "淪": 5049,
  "##gui": 55818,
  "##щения": 31666,
  "##wandte": 87094,
  "##cześnie": 44943,
  "decise": 39626,
  "войн": 107883,
  "##拚": 113839,
  "##ூ": 59189,
  "Image": 35314,
  "bis": 10467,
  "##يوم": 68995,
  "puts": 94910,
  "Reaktion": 73024,
  "asli": 16012,
  "تصميم": 107192,
  "##াব": 78639,
  "爱": 5383,
  "povijesti": 53105,
  "книги": 22155,
  "軌": 7598,
  "##نع": 50643,
  "##ических": 21871,
  "##νια": 61384,
  "##зные": 100137,
  "##SM": 75282,
  "嘻": 2962,
  "đỏ": 62634,
  "뭇": 9301,
  "##ifa": 44874,
  "switched": 66795,
  "Netherlands": 22043,
  "##бур": 62480,
  "##odor": 106219,
  "kytara": 71037,
  "##كب": 67762,
  "##מע": 83661,
  "eriti": 87423,
  "длина": 72160,
  "##ưởng": 68801,
  "произведения": 41827,
  "##vané": 32026,
  "##撕": 113997,
  "писатель": 43124,
  "untersucht": 92989,
  "##guda": 47674,
  "马": 8551,
  "однако": 17435,
  "kim": 38516,
  "Infrared": 84250,
  "##үштүк": 94358,
  "轄": 7630,
  "##ásra": 69688,
  "Boyko": 68913,
  "विशेष": 37100,
  "બાજરી": 46015,
  "benvenguda": 42059,
  "Rzeczypospolitej": 42640,
  "فرض": 95311,
  "##슘": 119076,
  "Laurence": 34946,
  "##кација": 90416,
  "##lungen": 74634,
  "##奄": 112977,
  "グループ": 66555,
  "attend": 34465,
  "হলো": 96135,
  "235": 21862,
  "одну": 31870,
  "##ίζοντας": 78230,
  "Director": 15480,
  "France": 10688,
  "锈": 8094,
  "მეორე": 38479,
  "##иране": 91056,
  "##аты": 46037,
  "##ponente": 47290,
  "##লো": 105864,
  "##väg": 59023,
  "gång": 65583,
  "721": 65832,
  "flow": 30676,
  "Ortschaft": 46528,
  "##iu": 11877,
  "##kowa": 69403,
  "grafikoan": 33204,
  "暹": 4434,
  "##sium": 75767,
  "ty": 26864,
  "딕": 9123,
  "##asu": 62182,
  "##33": 69646,
  "##겔": 118630,
  "Rollins": 75764,
  "##动": 112367,
  "מדיניות": 109417,
  "ряде": 103881,
  "primeros": 18911,
  "##ании": 43403,
  "титула": 95399,
  "##бинской": 99107,
  "##rici": 30558,
  "##nstvo": 76662,
  "contrairement": 91820,
  "Industries": 40277,
  "Claude": 14318,
  "##arm": 76171,
  "##ерта": 104294,
  "Rec": 97200,
  "##jom": 24813,
  "##湍": 114861,
  "Trump": 29846,
  "##chien": 95584,
  "##ื": 111429,
  "##தில்": 41240,
  "שכן": 61852,
  "רוברט": 108130,
  "becomes": 23785,
  "##quipe": 89673,
  "fanisana": 33192,
  "król": 65091,
  "заведующий": 92050,
  "werkt": 81153,
  "lenga": 21121,
  "##neho": 84788,
  "смт": 110821,
  "##ację": 91816,
  "dopiero": 48047,
  "浚": 4996,
  "disputato": 83365,
  "Texten": 108258,
  "stark": 20118,
  "##Base": 50947,
  "nagrade": 56747,
  "erthygl": 58759,
  "часу": 23168,
  "##क्स": 100077,
  "##ходить": 47387,
  "hefur": 31378,
  "zajednice": 89636,
  "Mansion": 110399,
  "##рое": 76688,
  "canadiense": 93574,
  "Mokslo": 56807,
  "ward": 60026,
  "弁": 3702,
  "##获": 116545,
  "##mony": 91481,
  "varying": 85136,
  "##nok": 82123,
  "##cable": 107891,
  "##捲": 113907,
  "Cáceres": 67446,
  "##nação": 89351,
  "Hooper": 40899,
  "protección": 42928,
  "##ola": 15154,
  "виробництво": 73496,
  "1444": 73681,
  "Time": 12000,
  "##siv": 81684,
  "##ァー": 75421,
  "dieser": 11906,
  "svými": 93165,
  "##ण्यात": 62860,
  "startade": 95815,
  "##tec": 64764,
  "##keit": 17870,
  "亿": 2180,
  "ел": 30777,
  "Գետի": 79976,
  "качестве": 17164,
  "đóng": 26885,
  "##kunta": 41412,
  "##மையில்": 106204,
  "americani": 67506,
  "kolme": 25888,
  "##lemen": 54657,
  "Margarida": 106915,
  "tức": 39321,
  "##herra": 101839,
  "томах": 55875,
  "##தை": 31354,
  "ایالات": 19566,
  "urednik": 102905,
  "舒": 6639,
  "##ence": 18492,
  "##нае": 43514,
  "abogado": 69889,
  "WEB": 88839,
  "دان": 92797,
  "##ләнә": 59866,
  "##ப்படி": 65329,
  "европан": 79613,
  "##ستور": 101722,
  "Военно": 62374,
  "##cked": 72333,
  "##endorf": 108195,
  "##მის": 25252,
  "adopté": 106221,
  "##парат": 41895,
  "帝": 3614,
  "怜": 3819,
  "польск": 49229,
  "##僑": 112162,
  "hienn": 40255,
  "loạt": 61375,
  "Armstrong": 24472,
  "decisão": 62867,
  "##寰": 113204,
  "##腮": 116348,
  "varierer": 109924,
  "##cht": 11640,
  "شیمیایی": 40693,
  "##pona": 109074,
  "Wizard": 70530,
  "luogo": 23751,
  "documento": 36190,
  "discontinued": 71086,
  "infancia": 70900,
  "växter": 63739,
  "gmin": 38085,
  "562": 50461,
  "##kolla": 101157,
  "##하라": 101656,
  "罕": 6399,
  "inntil": 83731,
  "ارائه": 51474,
  "##otis": 64590,
  "gebouwen": 77332,
  "Noruega": 38030,
  "சிறந்த": 61892,
  "##rista": 57565,
  "##ত্র": 42783,
  "جلد": 57215,
  "oynadı": 73979,
  "однієї": 84256,
  "ಇದಕ್ಕೆ": 91038,
  "笃": 6050,
  "Judge": 31617,
  "##rsus": 83119,
  "vision": 30237,
  "##vidos": 65285,
  "issues": 17850,
  "inicialmente": 32899,
  "missing": 39542,
  "##sies": 42632,
  "##живать": 100520,
  "impacto": 50538,
  "##飙": 118221,
  "schools": 16009,
  "##嗪": 112708,
  "svemiru": 55999,
  "##рты": 72186,
  "herečka": 91623,
  "樣": 4724,
  "##мма": 48670,
  "##နှင့်": 33927,
  "سان": 60746,
  "perda": 54954,
  "The": 10117,
  "##ιάς": 74211,
  "именем": 53127,
  "thirty": 44812,
  "##льд": 47796,
  "羿": 6434,
  "##rito": 35713,
  "Murat": 55008,
  "Paterson": 100500,
  "Donji": 91904,
  "##тас": 64398,
  "Teddy": 48694,
  "##vede": 59633,
  "この": 11831,
  "##aten": 27151,
  "##lni": 27869,
  "Gebäude": 19199,
  "Amerikalı": 82299,
  "ainult": 49805,
  "Shrewsbury": 109224,
  "辗": 7665,
  "тау": 61619,
  "светског": 67445,
  "##밋": 118959,
  "принимал": 52356,
  "Вони": 43472,
  "Beyaz": 86326,
  "사": 9405,
  "котором": 21071,
  "##فہ": 70361,
  "provinciale": 53085,
  "##uko": 39084,
  "terapia": 77665,
  "##пы": 25859,
  "##かの": 71774,
  "facility": 27774,
  "alte": 18181,
  "hii": 55155,
  "jaitsia": 109323,
  "Polijas": 103755,
  "Biol": 35992,
  "американского": 85181,
  "chứng": 34445,
  "##enuti": 79027,
  "##ლების": 23277,
  "##коп": 82947,
  "##க்கு": 18065,
  "lícules": 84737,
  "mampiasa": 31942,
  "##limi": 89337,
  "##笼": 115832,
  "templom": 34449,
  "##зда": 45076,
  "##麟": 118550,
  "##ώσεις": 46681,
  "courses": 27108,
  "##geon": 58763,
  "establezimendu": 59631,
  "帆": 3603,
  "##٣": 111177,
  "џ": 588,
  "##υτικό": 64793,
  "##putación": 102887,
  "vad": 50332,
  "تعمل": 67133,
  "##egna": 96326,
  "##梨": 114382,
  "##otten": 64496,
  "额": 8442,
  "##ndri": 66702,
  "##駛": 118290,
  "режиссёр": 33496,
  "Мәскәү": 34562,
  "subsidiary": 53898,
  "వద్ద": 64685,
  "##মান": 29454,
  "опыт": 90281,
  "förekommer": 35508,
  "Şehrin": 100556,
  "Bandar": 33031,
  "##간의": 60454,
  "Kataloqda": 102477,
  "derivada": 85979,
  "Valdés": 77965,
  "часы": 109787,
  "诡": 7341,
  "video": 12078,
  "092917": 19039,
  "Interpretation": 74915,
  "##ữ": 59678,
  "##овала": 92876,
  "##盡": 115516,
  "punti": 23062,
  "义": 2119,
  "##юць": 27229,
  "##нĕ": 39500,
  "Augustine": 69847,
  "Molde": 100508,
  "PTT": 26227,
  "Michal": 51153,
  "W": 160,
  "1940": 10888,
  "Jørgensen": 85906,
  "noi": 37390,
  "kez": 29603,
  "yo": 13672,
  "246": 26439,
  "##tlik": 62002,
  "Philadelphia": 15979,
  "Concordia": 66989,
  "##상으로": 82214,
  "##ресу": 106157,
  "strategy": 40919,
  "všetky": 81271,
  "##骆": 118336,
  "##鰐": 118419,
  "##kane": 87451,
  "팀": 9899,
  "##čiaus": 84853,
  "##ьер": 61732,
  "##heart": 94106,
  "##寇": 113184,
  "тварин": 74750,
  "##庚": 113431,
  "648": 61485,
  "##mem": 60503,
  "Gornja": 95082,
  "##uły": 101218,
  "progetto": 23895,
  "##орі": 74134,
  "Maas": 62383,
  "##овых": 21277,
  "militaires": 37600,
  "##зона": 94279,
  "Ī": 316,
  "pudiera": 93666,
  "##რდა": 45412,
  "##даний": 60461,
  "寝": 3425,
  "користат": 97114,
  "##绮": 116123,
  "##чеников": 90601,
  "##娘": 113059,
  "##槓": 114469,
  "રજકો": 74421,
  "##ობას": 65277,
  "Эль": 109299,
  "##拐": 113831,
  "стилю": 109551,
  "объектісі": 70365,
  "сина": 39275,
  "Польщі": 26520,
  "##惕": 113648,
  "##lay": 21768,
  "Została": 65922,
  "壺": 3180,
  "878": 74002,
  "kymmenen": 78672,
  "##ncial": 59563,
  "جامعة": 23215,
  "ԽՍՀՄ": 52864,
  "978": 10584,
  "##sbahn": 101790,
  "##दा": 25501,
  "##нн": 45102,
  "Schwartz": 49068,
  "Nikki": 65311,
  "##비스": 104021,
  "##羣": 116189,
  "fatto": 16966,
  "హ": 1234,
  "sjö": 14489,
  "않는다": 52723,
  "##nabis": 85215,
  "polnische": 98674,
  "Ham": 39135,
  "militaire": 18982,
  "##驻": 118328,
  "anda": 42588,
  "剔": 2571,
  "médico": 32816,
  "fyrsta": 66250,
  "Học": 96660,
  "deficit": 107383,
  "Shine": 65401,
  "##खते": 110310,
  "resources": 25744,
  "##biti": 71986,
  "monumentale": 75422,
  "Piotr": 32642,
  "sobie": 39447,
  "ಅದರ": 41726,
  "svart": 59178,
  "##ಶನ": 80170,
  "ιδρύθηκε": 88561,
  "飘": 8454,
  "##كس": 32388,
  "쳐": 9755,
  "Zunächst": 60289,
  "##прыклад": 87317,
  "##庭": 113439,
  "##telj": 55191,
  "Quebrada": 41204,
  "##ক্তি": 72593,
  "##ztak": 45354,
  "элементы": 68341,
  "tildelt": 53612,
  "##았다": 27303,
  "حين": 29735,
  "##wege": 40529,
  "ilman": 56471,
  "Ľ": 327,
  "##סוף": 52258,
  "Apple": 17216,
  "rurales": 81646,
  "##閒": 117902,
  "##뤄": 118895,
  "SBS": 21266,
  "##ൾ": 40979,
  "##מפיאדת": 85453,
  "##sında": 25666,
  "##骗": 118342,
  "Castile": 74196,
  "##بل": 35487,
  "acre": 54290,
  "##osas": 39786,
  "Marques": 81484,
  "蟑": 7048,
  "##عزيز": 81384,
  "##36": 60878,
  "1678": 43567,
  "Wikispecies": 85119,
  "сотрудников": 106006,
  "##ந்தை": 58394,
  "##енна": 64940,
  "##raken": 99988,
  "mandato": 31705,
  "sittemmin": 107593,
  "Omdat": 49710,
  "##dada": 41798,
  "מנת": 28399,
  "bordo": 32573,
  "Никола": 39482,
  "##herë": 80186,
  "fired": 38903,
  "##്രീ": 106656,
  "並": 2100,
  "##ançar": 83597,
  "Pavlovic": 100916,
  "дава": 56582,
  "##鸿": 118525,
  "dương": 30180,
  "##znej": 31676,
  "муниципальным": 31967,
  "##咨": 112608,
  "then": 11059,
  "Suzanne": 41171,
  "##jeg": 91782,
  "метара": 32367,
  "Idaho": 35227,
  "tube": 45245,
  "things": 24682,
  "##지를": 36908,
  "تھی": 29921,
  "namái": 66631,
  "orientales": 78284,
  "każdej": 103831,
  "##стью": 35131,
  "музею": 73609,
  "institut": 49801,
  "##男": 115381,
  "Aladin": 47031,
  "Magnetic": 100221,
  "definida": 72575,
  "##zně": 110535,
  "##騒": 118296,
  "##ffel": 91260,
  "##脯": 116328,
  "available": 14579,
  "##аки": 50034,
  "##ವಾದ": 22621,
  "якій": 37095,
  "Zukunft": 54861,
  "Cary": 93785,
  "##vampar": 79128,
  "##দে": 91602,
  "Fórmula": 43255,
  "##ഢ": 111392,
  "##淤": 114812,
  "Johnny": 15551,
  "Mercy": 52466,
  "منطقهٔ": 30963,
  "arXiv": 83817,
  "##વવામાં": 87855,
  "ädabinoms": 20294,
  "گے": 110812,
  "ဟ": 1522,
  "maiores": 32963,
  "Maestro": 49623,
  "Famille": 95198,
  "capa": 40306,
  "Miquel": 50488,
  "##fina": 54949,
  "widespread": 48675,
  "##सन": 54306,
  "##חו": 37436,
  "Ionawr": 70283,
  "##ffle": 66267,
  "μάχη": 73420,
  "##棠": 114401,
  "石": 5824,
  "##粪": 115921,
  "раёне": 29196,
  "თავისი": 55709,
  "##طل": 70428,
  "##нням": 95402,
  "Zoe": 77793,
  "##سین": 60223,
  "##дик": 48915,
  "##hru": 63834,
  "Карлос": 78981,
  "蹼": 7583,
  "augustil": 93007,
  "##μένες": 54783,
  "verbonden": 63259,
  "##묘": 118943,
  "め": 1965,
  "##àtica": 62870,
  "##्र": 18321,
  "##очно": 48127,
  "trúc": 48583,
  "xəritəsi": 96294,
  "Anglii": 36093,
  "##ålet": 108690,
  "brokparasitsteklar": 72150,
  "ç": 261,
  "##걷": 118623,
  "##hankelijk": 63612,
  "towers": 84761,
  "##iště": 59918,
  "approved": 29855,
  "মডেল": 99253,
  "##aires": 29194,
  "##hologie": 79670,
  "##ендә": 44620,
  "קו": 68029,
  "xéneru": 73135,
  "##һ": 111098,
  "##árd": 62109,
  "양": 9543,
  "##ünün": 46609,
  "Рэдкал": 48617,
  "##aea": 82696,
  "serious": 32342,
  "nelle": 13063,
  "abandon": 56566,
  "kisoissa": 61850,
  "VOC": 105483,
  "##zzare": 55306,
  "drawing": 46908,
  "construït": 98702,
  "capturado": 108718,
  "##蒸": 116616,
  "municipalities": 45027,
  "Sportler": 105860,
  "Fort": 14326,
  "##鉅": 117699,
  "##ീയ": 68922,
  "##靺": 118108,
  "##症": 115434,
  "seuraavana": 110198,
  "##care": 22277,
  "limitada": 62179,
  "熟": 5349,
  "##ели": 18400,
  "nimensä": 90176,
  "##честву": 76471,
  "##rds": 40725,
  "го": 11495,
  "zie": 72589,
  "##يني": 58273,
  "##ђа": 46407,
  "naslov": 62957,
  "ใน": 46301,
  "##ус": 19954,
  "יחד": 27017,
  "Sepanyol": 57249,
  "##۸۳": 70269,
  "ainakin": 83449,
  "resolución": 85971,
  "mitjançant": 43640,
  "##ינת": 52323,
  "##kern": 93931,
  "Wolves": 74807,
  "člen": 56377,
  "##وة": 30373,
  "韬": 8364,
  "peces": 37842,
  "التالية": 67215,
  "conflicts": 83594,
  "滉": 5129,
  "köy": 57898,
  "##īr": 104980,
  "##vima": 29850,
  "##øya": 42924,
  "economista": 87896,
  "韧": 8362,
  "þó": 62760,
  "##ישה": 42715,
  "Mujeres": 90231,
  "Rosenberg": 43050,
  "迪": 7709,
  "##捻": 113910,
  "##ări": 38215,
  "##sdale": 89277,
  "particles": 75593,
  "##hëm": 61754,
  "##ninkas": 90315,
  "علم": 23172,
  "כיום": 28247,
  "##таў": 65947,
  "умумӣ": 63634,
  "way": 13170,
  "generar": 106874,
  "llac": 98082,
  "Crist": 98269,
  "భారతీయ": 102948,
  "Zustand": 59283,
  "had": 10374,
  "øst": 32988,
  "##折": 113806,
  "##جماعة": 105863,
  "Senhora": 45132,
  "År": 20632,
  "##表": 116848,
  "̄": 422,
  "##жный": 30239,
  "##venir": 44247,
  "Kunhod": 88833,
  "##⟨": 111761,
  "##ические": 29457,
  "propriétés": 72940,
  "##wder": 62228,
  "##лăхĕ": 101871,
  "##္": 111502,
  "##פנות": 105494,
  "dollar": 34807,
  "##nthus": 41426,
  "alredor": 83153,
  "##улж": 98592,
  "jälleen": 62756,
  "rozgrywek": 60653,
  "##苏": 116468,
  "Ricardo": 20261,
  "##ột": 46700,
  "fini": 59222,
  "Sanskrit": 50778,
  "##voli": 31113,
  "νέο": 79261,
  "trakcie": 40241,
  "процесса": 82793,
  "##ள": 55186,
  "##olta": 33501,
  "##omme": 97551,
  "vrai": 63651,
  "##摠": 113982,
  "kilometriä": 41301,
  "##nene": 75160,
  "##smål": 102848,
  "##stin": 49529,
  "[unused31]": 31,
  "тăршшĕ": 36571,
  "Medina": 33047,
  "dipinto": 68134,
  "respectively": 25179,
  "##americanos": 72291,
  "XML": 44999,
  "Pas": 17779,
  "cocina": 93084,
  "Aero": 62420,
  "##zım": 98828,
  "এহানাত": 74669,
  "kumbang": 13615,
  "##胸": 116310,
  "preserve": 72551,
  "槟": 4707,
  "принял": 30543,
  "Bald": 92339,
  "asteroides": 47702,
  "##sio": 28002,
  "##ஷ": 111309,
  "gewinnen": 45718,
  "##βα": 75694,
  "##utt": 66117,
  "##unti": 64165,
  "影": 3756,
  "уггаре": 17901,
  "##logii": 43139,
  "##rge": 28163,
  "đầy": 57773,
  "ү": 605,
  "##вело": 75369,
  "##ক্ষে": 94575,
  "Ok": 84591,
  "Oru": 109499,
  "πληθυσμού": 109427,
  "norte": 12889,
  "والعشرون": 70309,
  "##শের": 107645,
  "##vala": 19006,
  "##ي": 10461,
  "##堇": 112872,
  "órdenes": 63069,
  "unternahm": 95837,
  "2551": 62308,
  "##férence": 83932,
  "##зал": 42276,
  "められている": 89273,
  "##德": 113555,
  "##амы": 83137,
  "regelui": 94390,
  "##iční": 105846,
  "##инской": 59509,
  "taxes": 49870,
  "reside": 76481,
  "861": 77132,
  "lens": 82295,
  "clean": 55911,
  "##ajno": 103456,
  "##ского": 11184,
  "produsent": 94835,
  "banen": 69953,
  "Од": 22651,
  "##メン": 95397,
  "##מונח": 102803,
  "##și": 22082,
  "حیات": 98239,
  "llamados": 75137,
  "##trat": 61908,
  "moto": 46322,
  "ਗੁਰੂ": 80778,
  "##ספירה": 94675,
  "Eigentümer": 100909,
  "absoluta": 47176,
  "##ari": 12476,
  "Oceanian": 66536,
  "##鰭": 118423,
  "1854": 15073,
  "formation": 16345,
  "locuitori": 17667,
  "studierte": 17807,
  "##ügen": 61284,
  "##釣": 117682,
  "##ುದಿಲ್ಲ": 106623,
  "##guruan": 95033,
  "хәрби": 69535,
  "Godzilla": 87452,
  "##菱": 116568,
  "rich": 33250,
  "lambok": 42338,
  "όλη": 81532,
  "##Ó": 110919,
  "1682": 41899,
  "##厅": 112472,
  "Fenner": 106677,
  "honetan": 66861,
  "##חיות": 76509,
  "stonden": 98797,
  "##tieri": 110231,
  "состоялось": 86033,
  "Da": 11818,
  "##gnac": 87954,
  "replica": 106728,
  "ಸ": 1294,
  "禿": 5947,
  "##ír": 26179,
  "##ПЦ": 86811,
  "بخشی": 59279,
  "##דבר": 56246,
  "celeste": 80912,
  "##cə": 28412,
  "##oline": 96541,
  "##ladem": 108712,
  "προς": 23383,
  "##жы": 45274,
  "кийин": 54110,
  "裨": 7115,
  "antena": 31368,
  "##lado": 31905,
  "1617": 46028,
  "Partnership": 101476,
  "Advanced": 26745,
  "##학급": 42248,
  "##ējis": 66125,
  "崇": 3545,
  "fought": 29766,
  "competir": 58072,
  "Назва": 87348,
  "Slave": 76464,
  "嘿": 2963,
  "##ушкин": 107945,
  "オブ": 34345,
  "##ವಾಗಿದೆ": 45880,
  "nag": 59065,
  "toinen": 35734,
  "##ían": 15978,
  "##icos": 18984,
  "熊": 5344,
  "##dlem": 78957,
  "##winden": 108940,
  "临": 2107,
  "পুরস্কার": 45863,
  "գրանցված": 63791,
  "sayıda": 81471,
  "bulundu": 108292,
  "մեկ": 28986,
  "estación": 23286,
  "##隊": 118007,
  "пор": 41436,
  "εποχή": 50366,
  "esistenza": 59034,
  "xa": 21772,
  "그가": 57790,
  "##凳": 112289,
  "##어난": 54305,
  "Beira": 110650,
  "zela": 57407,
  "rade": 106564,
  "sleep": 63658,
  "##стих": 99048,
  "##āda": 104523,
  "novia": 110845,
  "Marne": 22509,
  "##iza": 24213,
  "marché": 32410,
  "Sebastião": 97539,
  "##zyński": 103216,
  "prêmio": 70316,
  "##αση": 104887,
  "##week": 84805,
  "lot": 19826,
  "Albanian": 54257,
  "##chos": 37709,
  "victorias": 82177,
  "Russ": 83758,
  "Rosji": 42914,
  "զբաղեցնում": 52201,
  "lähti": 73233,
  "استعمال": 45096,
  "Rusija": 80792,
  "hockey": 21044,
  "dolce": 84366,
  "##۶۸": 84609,
  "सहित": 101498,
  "steel": 28605,
  "marupokan": 12567,
  "Югославия": 110289,
  "dio": 14283,
  "министрлығы": 35359,
  "轸": 7648,
  "diğer": 22942,
  "tourné": 101593,
  "##hany": 107163,
  "##ная": 11548,
  "carico": 76629,
  "assists": 63187,
  "##jświętszej": 104989,
  "##默": 118571,
  "贛": 7472,
  "ие": 55015,
  "巍": 3575,
  "蒐": 6841,
  "conservador": 91905,
  "##خر": 34802,
  "##zează": 110275,
  "tomonidan": 74267,
  "##탭": 119346,
  "конца": 31840,
  "##ρεί": 69140,
  "محمد": 13247,
  "##vno": 26038,
  "vlade": 72289,
  "937": 74848,
  "##穌": 115758,
  "匈": 2645,
  "body": 14333,
  "Václava": 102174,
  "ჰქონდა": 79394,
  "卤": 2690,
  "население": 20435,
  "వైద్య": 20833,
  "Norvège": 73186,
  "##חים": 27004,
  "##ители": 59975,
  "##fer": 14854,
  "##ciano": 64043,
  "##ику": 43792,
  "##傷": 112155,
  "##歙": 114554,
  "könnten": 86445,
  "Política": 58117,
  "##榊": 114449,
  "##dica": 27096,
  "المثال": 62066,
  "憎": 3940,
  "министра": 44942,
  "operação": 91567,
  "voters": 55450,
  "Hulk": 51822,
  "வரலாறு": 97759,
  "##娩": 113066,
  "водном": 101732,
  "détruite": 108536,
  "##וזה": 82209,
  "پا": 92690,
  "wonten": 32196,
  "606": 56682,
  "yıllarda": 62833,
  "लोकसभा": 107340,
  "civilisation": 98581,
  "##వరి": 41557,
  "轩": 7640,
  "Koninklijke": 61990,
  "sẵn": 99397,
  "Ensiklopediyası": 97305,
  "##nelles": 63346,
  "στη": 12810,
  "manchen": 105934,
  "##דן": 47878,
  "primele": 90977,
  "מדובר": 102570,
  "Petri": 53110,
  "instrumental": 27713,
  "##zycznej": 74517,
  "басып": 88562,
  "práci": 59112,
  "زاده": 32477,
  "tweevleugelige": 103658,
  "Alan": 14309,
  "że": 12537,
  "##ñar": 53897,
  "겁": 8869,
  "##ील": 28185,
  "народа": 31762,
  "##іст": 37775,
  "##mele": 81612,
  "##vų": 55745,
  "nemzetközi": 37015,
  "династии": 73975,
  "Sutton": 49913,
  "Abgeordneten": 97246,
  "Bog": 97033,
  "Interview": 27781,
  "Methods": 39672,
  "Gaztelaniaz": 42848,
  "interno": 16290,
  "войска": 27537,
  "Qua": 56618,
  "師": 3618,
  "negre": 71835,
  "卷": 2700,
  "botánica": 91474,
  "##ποιήθηκε": 68519,
  "ebenso": 29327,
  "soviétique": 44819,
  "mula": 20133,
  "##щта": 65178,
  "1750": 23529,
  "টি": 65288,
  "juez": 105228,
  "באליפות": 46504,
  "реализации": 104189,
  "##льний": 31645,
  "##wehr": 39228,
  "##sou": 44756,
  "освіти": 45815,
  "assumiu": 83335,
  "programmet": 57353,
  "##réu": 101144,
  "##ποιεί": 110406,
  "shelter": 85947,
  "میزان": 61744,
  "##몹": 118939,
  "va": 10321,
  "##tor": 11813,
  "मीटर": 95790,
  "##他": 111962,
  "Fenster": 51520,
  "ちを": 92470,
  "##laga": 61371,
  "##brada": 82656,
  "##லா": 91073,
  "##逗": 117499,
  "##vid": 32194,
  "##нската": 35014,
  "##કે": 88625,
  "##評": 116960,
  "dochází": 99916,
  "##帆": 113369,
  "armas": 24143,
  "##ッド": 23537,
  "##قصى": 95928,
  "##ційні": 69809,
  "##なっている": 37581,
  "Поскольку": 90384,
  "##alny": 69648,
  "аты": 101469,
  "##link": 43995,
  "Shea": 91399,
  "诒": 7332,
  "kleine": 16904,
  "##štas": 90979,
  "Вопросы": 106145,
  "чкъор": 61420,
  "DJ": 16057,
  "Loreto": 95275,
  "satelit": 61757,
  "##bini": 82294,
  "鈍": 7920,
  "metros": 12872,
  "Nafarroako": 68893,
  "##coala": 80033,
  "кампании": 78371,
  "##gár": 91609,
  "##jmuje": 99728,
  "##ologia": 22845,
  "##нец": 50840,
  "炘": 5275,
  "##इ": 34231,
  "##꽃": 118691,
  "começo": 96210,
  "##嫂": 113094,
  "##დებოდა": 72062,
  "##ry": 10908,
  "혐": 9980,
  "силы": 36963,
  "毕": 4840,
  "隍": 8243,
  "##幫": 113405,
  "gitt": 41893,
  "atween": 110691,
  "##pue": 90334,
  "nhà": 13265,
  "##다": 11903,
  "диссертацию": 70736,
  "affaires": 31133,
  "Stück": 34766,
  "##づ": 111796,
  "করতে": 28517,
  "##ічных": 93813,
  "Ze": 15536,
  "Comics": 20448,
  "drugą": 102957,
  "##sråd": 101087,
  "芍": 6678,
  "Sumatera": 33676,
  "использовать": 45683,
  "comté": 27944,
  "받은": 74141,
  "##енија": 97258,
  "##dung": 20458,
  "##חייה": 88774,
  "Tommy": 20136,
  "Garland": 51873,
  "бөлінеді": 85972,
  "entity": 69785,
  "octombrie": 33991,
  "líderes": 47737,
  "voisine": 105158,
  "134": 18546,
  "begynnelsen": 69827,
  "Never": 20452,
  "##pekte": 105304,
  "r": 186,
  "existentes": 58567,
  "##려": 26737,
  "ehemals": 66705,
  "procjeni": 55570,
  "409": 37659,
  "caractérisée": 49988,
  "birthday": 56396,
  "svo": 49639,
  "règles": 60352,
  "俏": 2306,
  "##čnou": 60820,
  "##ógica": 51534,
  "##応": 113568,
  "##meister": 21449,
  "המדינה": 27378,
  "##ljivo": 93060,
  "##ionen": 39398,
  "##صلة": 98311,
  "초": 9757,
  "##odd": 29415,
  "##thy": 54047,
  "##дарды": 89489,
  "Por": 12399,
  "##yti": 35005,
  "##nti": 12752,
  "dispositivo": 55040,
  "enligt": 11745,
  "statistics": 36730,
  "##கர்": 39980,
  "դրությամբ": 39317,
  "intern": 90598,
  "淆": 5036,
  "##tati": 26119,
  "##osto": 50090,
  "漩": 5167,
  "훌": 10005,
  "פעם": 53436,
  "Acre": 86200,
  "poner": 62721,
  "미": 9309,
  "Robert": 10820,
  "captura": 67017,
  "Kongres": 83031,
  "Məqalələr": 101170,
  "త": 1215,
  "##cións": 39730,
  "##sim": 52977,
  "Franken": 65617,
  "##泌": 114705,
  "месца": 67829,
  "1103": 71112,
  "třetí": 53116,
  "হ": 979,
  "Hui": 77845,
  "ils": 13178,
  "যা": 26788,
  "##抜": 113809,
  "Cities": 35582,
  "Gallo": 59181,
  "##جاج": 81488,
  "##يتها": 97162,
  "franséisch": 51629,
  "##ских": 12445,
  "є": 577,
  "świata": 19176,
  "##ölbe": 96601,
  "##лично": 70667,
  "Aceh": 30710,
  "ల": 1228,
  "Patrick": 13867,
  "తక్కువ": 101817,
  "##ɪ": 110997,
  "##уч": 49299,
  "prices": 57476,
  "katholische": 45035,
  "considerata": 62673,
  "##मी": 40340,
  "minyak": 68552,
  "إب": 87040,
  "Llión": 89984,
  "##体": 112017,
  "##续": 116122,
  "##ਿਨ": 66428,
  "##酒": 117629,
  "poblacions": 32277,
  "musicians": 36637,
  "##του": 29613,
  "##నూ": 89513,
  "Sean": 21286,
  "僧": 2400,
  "Dina": 48811,
  "lai": 25845,
  "##圻": 112804,
  "artene": 75803,
  "##tence": 77379,
  "מרכז": 47073,
  "慎": 3922,
  "##筐": 115839,
  "बड़ा": 79783,
  "alates": 45790,
  "1321": 98976,
  "##ās": 14396,
  "##ₙ": 83814,
  "بسیار": 25522,
  "donations": 96051,
  "巩": 3588,
  "##omotiv": 106912,
  "##āla": 65435,
  "##олнения": 93812,
  "Amor": 18389,
  "Pia": 52051,
  "؟": 756,
  "wynosiła": 33785,
  "拔": 4068,
  "遜": 7766,
  "Fiji": 42604,
  "##ను": 14314,
  "Ä": 229,
  "##edd": 31106,
  "われた": 19140,
  "##द": 15552,
  "meu": 67099,
  "##͡": 111023,
  "יורק": 39559,
  "Blanc": 31867,
  "između": 17642,
  "filmed": 43729,
  "墜": 3147,
  "декември": 25144,
  "commented": 56385,
  "Braves": 97242,
  "Fylke": 91928,
  "attualmente": 52295,
  "widmete": 71676,
  "beliau": 19876,
  "##vane": 59731,
  "canon": 50244,
  "##служений": 71310,
  "raising": 59252,
  "өлөшө": 92993,
  "##贺": 117265,
  "##rgen": 39802,
  "跃": 7546,
  "##aret": 74481,
  "戊": 3970,
  "zugunsten": 99690,
  "fonti": 57161,
  "##脑": 116322,
  "studija": 45251,
  "সহ": 109087,
  "##柘": 114307,
  "Sancho": 54805,
  "##jstvo": 81611,
  "婚": 3310,
  "карт": 95582,
  "##lon": 15709,
  "vere": 46897,
  "kontrol": 55605,
  "##铁": 117834,
  "TS": 72218,
  "कुनै": 85016,
  "##nian": 60873,
  "το": 10487,
  "毅": 4831,
  "闐": 8156,
  "e": 173,
  "tard": 14613,
  "Guicciardini": 29326,
  "Comédie": 61821,
  "##ಪು": 89856,
  "##kryta": 95639,
  "##fta": 51510,
  "другу": 70723,
  "sentyabr": 68636,
  "##dosi": 74054,
  "ॆ": 910,
  "osoba": 20996,
  "##뉜": 118757,
  "##콘": 119307,
  "833": 55242,
  "tidligere": 15957,
  "##anlagen": 61926,
  "kanal": 35605,
  "ці": 24899,
  "##стві": 41379,
  "##ivité": 61543,
  "לגבי": 73892,
  "##raphie": 94699,
  "##ämpfen": 75058,
  "пр": 25484,
  "omfattende": 73934,
  "allo": 20779,
  "réalisée": 35909,
  "Powiat": 61611,
  "Diamonds": 78290,
  "studying": 47308,
  "辻": 7684,
  "Much": 35555,
  "Ḥ": 1627,
  "Horacio": 94598,
  "concertos": 97372,
  "5ª": 98179,
  "ռուսական": 103937,
  "馏": 8504,
  "##ving": 16297,
  "turning": 48448,
  "##croft": 65253,
  "##ovať": 51374,
  "##актор": 94190,
  "Ω": 460,
  "##sior": 97908,
  "Bollywood": 60868,
  "voli": 98237,
  "##諍": 117006,
  "کمتر": 74506,
  "##叹": 112530,
  "دیا": 30393,
  "existed": 45548,
  "아들": 54991,
  "compétition": 30034,
  "鸳": 8756,
  "embora": 33697,
  "##akademie": 67933,
  "tuli": 17802,
  "##ংশ": 68663,
  "чергу": 84965,
  "дахаран": 78989,
  "##널": 49881,
  "会": 2226,
  "##풍": 119409,
  "##ամ": 86671,
  "Ann": 15879,
  "専": 3449,
  "міститься": 76307,
  "NCBI": 78032,
  "خلق": 70284,
  "obično": 43948,
  "##剝": 112340,
  "1293": 108908,
  "##ovy": 64067,
  "católica": 43033,
  "Lotto": 108630,
  "##pegno": 104995,
  "##sen": 10917,
  "##ǹ": 110986,
  "växtart": 36342,
  "განმავლობაში": 77133,
  "##teto": 88851,
  "tradicional": 21752,
  "##isis": 93259,
  "овај": 61168,
  "징": 9713,
  "##elijk": 20877,
  "ordförande": 65457,
  "Super": 12786,
  "světa": 31590,
  "##গঞ্জ": 77084,
  "tipli": 34441,
  "réunit": 108507,
  "στον": 14296,
  "Panchayat": 64559,
  "může": 25039,
  "##ood": 39041,
  "banner": 85907,
  "vò": 64586,
  "1741": 34750,
  "##ium": 12454,
  "век": 16174,
  "Foram": 109776,
  "Origins": 26471,
  "##σμένα": 90980,
  "dragon": 76499,
  "physique": 39434,
  "овом": 54244,
  "##يّة": 80093,
  "S1574": 107612,
  "mengambil": 33395,
  "उ": 855,
  "ま": 1962,
  "Athletics": 46800,
  "##rude": 97417,
  "кор": 80062,
  "##ခ": 111470,
  "Corse": 50024,
  "მისი": 19857,
  "##шение": 30578,
  "児": 2437,
  "Limerick": 90137,
  "leyes": 61006,
  "lutym": 69522,
  "hanggang": 59143,
  "Фильм": 58318,
  "##boj": 52125,
  "##λικής": 54857,
  "קטנים": 84884,
  "society": 19912,
  "avaient": 25483,
  "##SU": 88592,
  "##garan": 109809,
  "Paper": 35944,
  "##اس": 15995,
  "所": 3999,
  "訛": 7178,
  "##рб": 55764,
  "罢": 6403,
  "torres": 56262,
  "##бите": 94278,
  "ึ": 1445,
  "distinct": 35428,
  "836": 77733,
  "דוד": 41446,
  "tomó": 41613,
  "воно": 91856,
  "##שלושה": 99157,
  "ਜਾਣ": 103769,
  "당시": 24756,
  "former": 11775,
  "Valeria": 90158,
  "##orto": 78476,
  "början": 33358,
  "Стразбур": 91367,
  "##ringe": 98557,
  "##лып": 29013,
  "몰": 9287,
  "плей": 66389,
  "гадоў": 40077,
  "januara": 96219,
  "Единый": 75977,
  "residenza": 94764,
  "вулиця": 77638,
  "##рык": 110396,
  "voti": 49449,
  "re": 11639,
  "حمل": 55620,
  "##ückte": 101117,
  "точно": 55819,
  "##čajne": 93204,
  "manuscrit": 86924,
  "##ności": 18811,
  "睫": 5789,
  "Douglas": 14860,
  "Фрунзе": 64187,
  "##ények": 51304,
  "обладнання": 106047,
  "These": 13252,
  "comunas": 48735,
  "##ome": 22451,
  "##gangspunkt": 69683,
  "हैं": 11716,
  "Nya": 42541,
  "дни": 41133,
  "503": 46186,
  "##mitteln": 72974,
  "##жоу": 108134,
  "тимер": 72399,
  "elegit": 90634,
  "pluse": 24861,
  "erg": 54806,
  "##簒": 115887,
  "##mannen": 75140,
  "submarine": 49412,
  "изображения": 79433,
  "ԱՄՆ": 36698,
  "##eins": 88764,
  "Angel": 17567,
  "##ртстан": 64733,
  "էջ": 19514,
  "友": 2731,
  "niet": 11670,
  "zichligi": 25383,
  "Busch": 55947,
  "##յին": 68713,
  "obrazy": 89920,
  "##KS": 62828,
  "Obispo": 97938,
  "trans": 37241,
  "##tým": 62014,
  "Simpsons": 62431,
  "##ське": 27707,
  "bil": 13897,
  "governed": 84813,
  "гӀоролаш": 69844,
  "##iline": 71759,
  "##udesta": 72108,
  "mind": 21133,
  "جاء": 78828,
  "ofizialki": 85395,
  "07": 10878,
  "حدود": 26542,
  "algunas": 20579,
  "الکتروشیمی": 82818,
  "전": 9665,
  "##欖": 114537,
  "necessari": 79550,
  "##allen": 92874,
  "у": 560,
  "##érprete": 98599,
  "##辦": 117438,
  "밑": 9317,
  "soltanto": 53130,
  "##GE": 58719,
  "primi": 18217,
  "Things": 28969,
  "tentou": 99639,
  "kiện": 34018,
  "straně": 45282,
  "##dret": 87882,
  "communications": 42919,
  "Essay": 82257,
  "##burgh": 94202,
  "Først": 107221,
  "سجلت": 75200,
  "powstały": 81364,
  "regiões": 49966,
  "appartient": 52199,
  "wird": 10790,
  "##ленных": 52944,
  "##tkom": 93361,
  "perang": 30774,
  "ਸਾਹਿਤ": 72935,
  "biz": 94912,
  "undertaken": 92311,
  "##čnik": 58772,
  "##פא": 100588,
  "##льзя": 106870,
  "acció": 74601,
  "considerado": 21929,
  "continuò": 75198,
  "métodos": 44116,
  "Belém": 101977,
  "خان": 23027,
  "betrug": 35495,
  "azon": 51594,
  "##ίκου": 81272,
  "концерт": 58173,
  "##াড়া": 92525,
  "قانون": 28918,
  "Thiên": 38936,
  "##럭": 118864,
  "##oty": 51683,
  "##вая": 24000,
  "Bangladesh": 24080,
  "Fahrt": 92392,
  "##phins": 101474,
  "Piechoty": 61693,
  "memulai": 61736,
  "Vintage": 101805,
  "Casablanca": 54971,
  "425": 33437,
  "##ciente": 68265,
  "Allison": 43698,
  "##ien": 11540,
  "1563": 49426,
  "磐": 5883,
  "##јала": 84441,
  "Fuerza": 55347,
  "煤": 5334,
  "pjesme": 52259,
  "##nione": 75845,
  "internazionale": 29881,
  "Strand": 34911,
  "##ciem": 64946,
  "бөлүгү": 64514,
  "instructor": 79254,
  "bá": 74686,
  "lipcu": 61337,
  "inning": 110505,
  "##tland": 29984,
  "##度": 113436,
  "搞": 4202,
  "##rgers": 67687,
  "sørvest": 83640,
  "##chemical": 95583,
  "Allerdings": 40116,
  "Cunha": 72596,
  "coas": 69206,
  "##сън": 75873,
  "##zésére": 105637,
  "##аецца": 101234,
  "карайт": 90693,
  "##plı": 107676,
  "директора": 41352,
  "##genes": 52085,
  "iedzīvotāju": 99907,
  "##த்தில்": 18232,
  "Sheppard": 106711,
  "##륜": 118899,
  "桧": 4602,
  "possibles": 72089,
  "##قبال": 66254,
  "##കാലത്ത്": 69643,
  "მიიღო": 56399,
  "##яло": 65403,
  "##jë": 29713,
  "màxim": 107029,
  "##ulated": 37725,
  "museo": 28816,
  "##원": 14279,
  "##圓": 112790,
  "##ificou": 110439,
  "Essonne": 96139,
  "##ezione": 70360,
  "և": 706,
  "научных": 42545,
  "幡": 3636,
  "priest": 40981,
  "rebre": 38463,
  "##ськими": 51994,
  "సాధారణంగా": 90259,
  "##ವರೆಗೆ": 97103,
  "##beck": 32312,
  "##onas": 60537,
  "Orang": 48713,
  "האלבום": 39384,
  "supporter": 65169,
  "##ques": 12633,
  "إ": 761,
  "específicos": 93345,
  "sua": 10603,
  "円": 2469,
  "goude": 54692,
  "##nne": 15490,
  "peab": 77705,
  "##ЭС": 90123,
  "Gouden": 110608,
  "##pii": 86632,
  "trích": 107328,
  "##ჩ": 111518,
  "となる": 14062,
  "this": 10531,
  "seine": 11493,
  "##реће": 65279,
  "Velike": 89564,
  "Би": 102773,
  "苫": 6713,
  "##čki": 18578,
  "politické": 94331,
  "##вод": 45597,
  "opened": 14377,
  "##gnant": 51485,
  "punct": 41023,
  "Fang": 70692,
  "Өфө": 47733,
  "##zh": 15104,
  "cinsinə": 65500,
  "stärker": 82014,
  "gränsen": 106832,
  "##ченко": 32772,
  "漬": 5170,
  "dalej": 85944,
  "influences": 46486,
  "##urée": 75263,
[...]
